{
  "version": "1.0",
  "truncation": null,
  "padding": null,
  "added_tokens": [
    {
      "id": 0,
      "content": "<unk>",
      "single_word": false,
      "lstrip": false,
      "rstrip": false,
      "normalized": false,
      "special": true
    },
    {
      "id": 1,
      "content": "<s>",
      "single_word": false,
      "lstrip": false,
      "rstrip": false,
      "normalized": false,
      "special": true
    },
    {
      "id": 2,
      "content": "</s>",
      "single_word": false,
      "lstrip": false,
      "rstrip": false,
      "normalized": false,
      "special": true
    }
  ],
  "normalizer": null,
  "pre_tokenizer": {
    "type": "Metaspace",
    "replacement": " ",
    "prepend_scheme": "always",
    "split": true
  },
  "post_processor": null,
  "decoder": null,
  "model": {
    "type": "Unigram",
    "unk_id": 0,
    "vocab": [
      [
        "<unk>",
        0.0
      ],
      [
        "<s>",
        0.0
      ],
      [
        "</s>",
        0.0
      ],
      [
        "的",
        -3.361439365254432
      ],
      [
        "，",
        -3.5489797756922936
      ],
      [
        "\n",
        -3.6500167281122966
      ],
      [
        "。",
        -4.00131013674811
      ],
      [
        " ",
        -4.474788952713128
      ],
      [
        "了",
        -4.774568350439186
      ],
      [
        "在",
        -4.799336890220966
      ],
      [
        "是",
        -4.8814665817491125
      ],
      [
        " 　　",
        -4.9958431898758775
      ],
      [
        "不",
        -5.014487268979513
      ],
      [
        "他",
        -5.083135182578284
      ],
      [
        "。”",
        -5.121768977570053
      ],
      [
        "我",
        -5.214253160754904
      ],
      [
        " 　　“",
        -5.224960391544812
      ],
      [
        "地",
        -5.2558368493895475
      ],
      [
        "一",
        -5.293441662190919
      ],
      [
        "人",
        -5.325544879593048
      ],
      [
        "上",
        -5.429700754859894
      ],
      [
        "有",
        -5.442318418525609
      ],
      [
        "着",
        -5.485608324330256
      ],
      [
        "你",
        -5.537267062365133
      ],
      [
        "和",
        -5.548599307248388
      ],
      [
        "大",
        -5.586852394333441
      ],
      [
        "到",
        -5.741100764858748
      ],
      [
        "中",
        -5.855095309837697
      ],
      [
        "会",
        -5.8609591948249875
      ],
      [
        "我们",
        -5.899453357861777
      ],
      [
        "说",
        -5.908621941684197
      ],
      [
        "来",
        -5.912020981575926
      ],
      [
        "对",
        -5.919201371819494
      ],
      [
        ",",
        -5.944595788818697
      ],
      [
        "就",
        -5.946857424466302
      ],
      [
        "他们",
        -5.948792229401548
      ],
      [
        "这",
        -5.9664201626256315
      ],
      [
        "一个",
        -6.019343799986402
      ],
      [
        "她",
        -6.050246955945486
      ],
      [
        "出",
        -6.089540280481801
      ],
      [
        "也",
        -6.10000044999939
      ],
      [
        "下",
        -6.108083502508638
      ],
      [
        "子",
        -6.120624956678412
      ],
      [
        "都",
        -6.122166297557335
      ],
      [
        "得",
        -6.129197820216378
      ],
      [
        "、",
        -6.14174858395636
      ],
      [
        "想",
        -6.147419126041859
      ],
      [
        "好",
        -6.1521991884884955
      ],
      [
        "里",
        -6.162866296520372
      ],
      [
        "那",
        -6.181146333519534
      ],
      [
        "从",
        -6.191616990538359
      ],
      [
        "要",
        -6.201046777819103
      ],
      [
        "过",
        -6.206320201035531
      ],
      [
        "把",
        -6.216718468301149
      ],
      [
        "，他",
        -6.222135083349766
      ],
      [
        "用",
        -6.234744217847833
      ],
      [
        "没有",
        -6.259658618243501
      ],
      [
        "，我",
        -6.293879238991744
      ],
      [
        "了。",
        -6.315705295038381
      ],
      [
        "很",
        -6.341263987501209
      ],
      [
        "小",
        -6.344461070877161
      ],
      [
        "头",
        -6.347150608188494
      ],
      [
        "尔",
        -6.351092790260838
      ],
      [
        "能",
        -6.3580919051282585
      ],
      [
        "这个",
        -6.359539815271168
      ],
      [
        "去",
        -6.366087112116412
      ],
      [
        "被",
        -6.369383202569464
      ],
      [
        "长",
        -6.40133045049493
      ],
      [
        "心",
        -6.405800871393483
      ],
      [
        "？”",
        -6.421141689006223
      ],
      [
        "向",
        -6.4217976343267456
      ],
      [
        " “",
        -6.423812315680022
      ],
      [
        "斯",
        -6.436409352455067
      ],
      [
        "又",
        -6.437085757000181
      ],
      [
        "看",
        -6.466855961776121
      ],
      [
        "将",
        -6.4751834831189115
      ],
      [
        "多",
        -6.495543778320309
      ],
      [
        "！",
        -6.518352322348791
      ],
      [
        "已经",
        -6.518637018938538
      ],
      [
        "而",
        -6.526397855848684
      ],
      [
        "它",
        -6.528405396166059
      ],
      [
        "可以",
        -6.536444845122713
      ],
      [
        "天",
        -6.53893026668392
      ],
      [
        "无",
        -6.555631351899708
      ],
      [
        "。他",
        -6.57259519116011
      ],
      [
        "为",
        -6.577198367681957
      ],
      [
        "还",
        -6.58149615311668
      ],
      [
        "！”",
        -6.591725017741318
      ],
      [
        "——",
        -6.592788349437452
      ],
      [
        "克",
        -6.618502782256133
      ],
      [
        "手",
        -6.619724252092311
      ],
      [
        "“",
        -6.639981611090203
      ],
      [
        "自己",
        -6.640979069937854
      ],
      [
        "可",
        -6.645156028399221
      ],
      [
        "起",
        -6.6610794274785405
      ],
      [
        "动",
        -6.664880171202103
      ],
      [
        "时",
        -6.666202272672733
      ],
      [
        "走",
        -6.668376319663265
      ],
      [
        "，”",
        -6.6721737016119285
      ],
      [
        "？",
        -6.679895917257971
      ],
      [
        "光",
        -6.690429942932932
      ],
      [
        "高",
        -6.704022176032165
      ],
      [
        "他的",
        -6.707912076702593
      ],
      [
        "之",
        -6.709546842295827
      ],
      [
        "知道",
        -6.709652613846558
      ],
      [
        "面",
        -6.710972855724835
      ],
      [
        "特",
        -6.712803255329641
      ],
      [
        "力",
        -6.713232916741061
      ],
      [
        "年",
        -6.717601187186279
      ],
      [
        "开",
        -6.719600159860427
      ],
      [
        "所",
        -6.725528867208482
      ],
      [
        "气",
        -6.727740197542865
      ],
      [
        "外",
        -6.729148089983958
      ],
      [
        "做",
        -6.734659311254607
      ],
      [
        "比",
        -6.741384236412715
      ],
      [
        "与",
        -6.743213918327058
      ],
      [
        "现在",
        -6.796244741771652
      ],
      [
        "点",
        -6.798157195981428
      ],
      [
        "：",
        -6.809471768564434
      ],
      [
        "”",
        -6.81142937961827
      ],
      [
        "水",
        -6.8143798373690405
      ],
      [
        "，但",
        -6.817545709602207
      ],
      [
        "个",
        -6.8206181312133225
      ],
      [
        "于",
        -6.821310795513952
      ],
      [
        "后",
        -6.824876985299882
      ],
      [
        "发",
        -6.8275551608144855
      ],
      [
        "什么",
        -6.836603861994208
      ],
      [
        "拉",
        -6.842634696504264
      ],
      [
        "没",
        -6.850168129997838
      ],
      [
        "海",
        -6.853220035585572
      ],
      [
        "……",
        -6.853981301783488
      ],
      [
        "口",
        -6.854132434998434
      ],
      [
        "者",
        -6.8581810341143825
      ],
      [
        "最",
        -6.863090923884313
      ],
      [
        "生",
        -6.873146145150109
      ],
      [
        "行",
        -6.885406423086488
      ],
      [
        "体",
        -6.890664322952656
      ],
      [
        "两",
        -6.893271481244394
      ],
      [
        "当",
        -6.89350574997799
      ],
      [
        "事",
        -6.897553577674435
      ],
      [
        "这种",
        -6.902265253959786
      ],
      [
        "道",
        -6.905941128459007
      ],
      [
        "了，",
        -6.925450281589248
      ],
      [
        "声",
        -6.936943082026852
      ],
      [
        "像",
        -6.941843045080139
      ],
      [
        "使",
        -6.9459806666493105
      ],
      [
        "更",
        -6.94949532962794
      ],
      [
        "星",
        -6.95127570801537
      ],
      [
        "这些",
        -6.954848112648948
      ],
      [
        "成",
        -6.962600805245605
      ],
      [
        "不是",
        -6.96841874632344
      ],
      [
        "就是",
        -6.9910587799802375
      ],
      [
        "以",
        -6.992375773959427
      ],
      [
        "只",
        -6.997274009654037
      ],
      [
        "前",
        -7.000750913977813
      ],
      [
        "意",
        -7.010995967792837
      ],
      [
        "再",
        -7.021255878599806
      ],
      [
        "自",
        -7.028361313584073
      ],
      [
        "身",
        -7.037629459617632
      ],
      [
        "船",
        -7.040400534524588
      ],
      [
        "。我",
        -7.040910398401056
      ],
      [
        "你们",
        -7.042680810889715
      ],
      [
        "，你",
        -7.0460924677873855
      ],
      [
        "利",
        -7.057235852295813
      ],
      [
        "；",
        -7.063745127929849
      ],
      [
        "打",
        -7.068070276143761
      ],
      [
        "几",
        -7.075770449912341
      ],
      [
        "·",
        -7.076921373670199
      ],
      [
        "正",
        -7.0800901730317545
      ],
      [
        "度",
        -7.0811989205583785
      ],
      [
        "，他们",
        -7.085506760360472
      ],
      [
        "们",
        -7.08832492715425
      ],
      [
        "理",
        -7.089292815863738
      ],
      [
        "的人",
        -7.091484675823805
      ],
      [
        "可能",
        -7.096444086343544
      ],
      [
        "情",
        -7.099276358356763
      ],
      [
        "那个",
        -7.104036477532585
      ],
      [
        "分",
        -7.1071839530062135
      ],
      [
        "太",
        -7.118623604671729
      ],
      [
        "听",
        -7.121024872767942
      ],
      [
        "说，“",
        -7.1227979890450595
      ],
      [
        "叫",
        -7.1229332390869065
      ],
      [
        "不会",
        -7.125344347023397
      ],
      [
        "，我们",
        -7.130303700885831
      ],
      [
        "吗？”",
        -7.132836886293372
      ],
      [
        "说。",
        -7.151875553007686
      ],
      [
        "您",
        -7.153909061959393
      ],
      [
        "已",
        -7.1559147138671335
      ],
      [
        "那些",
        -7.158945942863012
      ],
      [
        "同",
        -7.163531920528101
      ],
      [
        "内",
        -7.176422644474675
      ],
      [
        "等",
        -7.178711367595447
      ],
      [
        "定",
        -7.180603734281156
      ],
      [
        "十",
        -7.181345618149713
      ],
      [
        "作",
        -7.183703678304388
      ],
      [
        "世界",
        -7.1842113310451
      ],
      [
        "这样",
        -7.1857034247315426
      ],
      [
        "说：“",
        -7.195898952579343
      ],
      [
        "，这",
        -7.2003775833134505
      ],
      [
        "方",
        -7.2011253429718725
      ],
      [
        " 　　“我",
        -7.204667359778256
      ],
      [
        "问",
        -7.205116827566803
      ],
      [
        "家",
        -7.205562568758278
      ],
      [
        "带",
        -7.214199140478716
      ],
      [
        "门",
        -7.215000558581146
      ],
      [
        "日",
        -7.215581796356755
      ],
      [
        "老",
        -7.221970785454401
      ],
      [
        "山",
        -7.222880107488807
      ],
      [
        "处",
        -7.228767862462128
      ],
      [
        "色",
        -7.230472073582682
      ],
      [
        "给",
        -7.235067617664287
      ],
      [
        "让",
        -7.239459064162457
      ],
      [
        "进",
        -7.242399184785423
      ],
      [
        "德",
        -7.243323179408851
      ],
      [
        "火",
        -7.24475057295726
      ],
      [
        "回",
        -7.245071439488633
      ],
      [
        "学",
        -7.2519190881700375
      ],
      [
        "马",
        -7.253335813039673
      ],
      [
        "物",
        -7.256124712991145
      ],
      [
        "开始",
        -7.256571702749589
      ],
      [
        "不能",
        -7.259454686173651
      ],
      [
        "见",
        -7.25965811683831
      ],
      [
        "却",
        -7.2696354602976605
      ],
      [
        "风",
        -7.272761506311571
      ],
      [
        "才",
        -7.2779859204836885
      ],
      [
        "路",
        -7.281867955961644
      ],
      [
        "话",
        -7.285271343226789
      ],
      [
        "看到",
        -7.285303829127399
      ],
      [
        "流",
        -7.286997766672002
      ],
      [
        "住",
        -7.288337642748273
      ],
      [
        "平",
        -7.296255139143318
      ],
      [
        "机",
        -7.3002319954627115
      ],
      [
        "死",
        -7.304553100797957
      ],
      [
        "布",
        -7.322246436080993
      ],
      [
        "重",
        -7.324568570101958
      ],
      [
        "，在",
        -7.324926622830626
      ],
      [
        "三",
        -7.32589176527874
      ],
      [
        "法",
        -7.325916229763953
      ],
      [
        "地球",
        -7.3280794434541825
      ],
      [
        "边",
        -7.328133561738351
      ],
      [
        "线",
        -7.334550055052182
      ],
      [
        "加",
        -7.336948996710845
      ],
      [
        "远",
        -7.338297379155989
      ],
      [
        "相",
        -7.345645812621163
      ],
      [
        "主",
        -7.351076586110564
      ],
      [
        "合",
        -7.352861875603391
      ],
      [
        "罗",
        -7.356395746282351
      ],
      [
        "……”",
        -7.361148874649384
      ],
      [
        "：“",
        -7.364451321827074
      ],
      [
        "性",
        -7.3708334711059535
      ],
      [
        "发现",
        -7.372221533833427
      ],
      [
        "指",
        -7.372544368369866
      ],
      [
        "部",
        -7.3750776462649466
      ],
      [
        "全",
        -7.37725410188342
      ],
      [
        "象",
        -7.378379507469926
      ],
      [
        "人类",
        -7.38372383794554
      ],
      [
        "眼",
        -7.384883329550638
      ],
      [
        "了。”",
        -7.385173273681232
      ],
      [
        "放",
        -7.39456403024205
      ],
      [
        "达",
        -7.397526900899264
      ],
      [
        "米",
        -7.40041678277036
      ],
      [
        "四",
        -7.413139154151514
      ],
      [
        "笑",
        -7.4141208381131225
      ],
      [
        "名",
        -7.414429849729899
      ],
      [
        "此",
        -7.416550911101629
      ],
      [
        "那么",
        -7.4171454774693775
      ],
      [
        "时间",
        -7.422460445267699
      ],
      [
        "真",
        -7.423778768860002
      ],
      [
        "西",
        -7.428656596164558
      ],
      [
        "月",
        -7.434817638801853
      ],
      [
        "1",
        -7.43552677464735
      ],
      [
        "尼",
        -7.436675928150102
      ],
      [
        "最后",
        -7.440698294151089
      ],
      [
        "便",
        -7.441577120560966
      ],
      [
        "国",
        -7.441691456777988
      ],
      [
        "自己的",
        -7.442108904578211
      ],
      [
        "，“",
        -7.443602265660056
      ],
      [
        "，而",
        -7.444052813725035
      ],
      [
        "转",
        -7.444230064065124
      ],
      [
        "。“",
        -7.444438632326298
      ],
      [
        "场",
        -7.445284589762135
      ],
      [
        "还是",
        -7.447675228535706
      ],
      [
        "快",
        -7.448302129671525
      ],
      [
        "吗？",
        -7.449311824762145
      ],
      [
        "一种",
        -7.452520073133373
      ],
      [
        "然",
        -7.459728598627205
      ],
      [
        "跟",
        -7.464003880733216
      ],
      [
        "干",
        -7.46658204571847
      ],
      [
        "白",
        -7.468210036809216
      ],
      [
        "电",
        -7.471976264137888
      ],
      [
        "我的",
        -7.473027322551184
      ],
      [
        "感",
        -7.474108451498486
      ],
      [
        "先生",
        -7.474335255470546
      ],
      [
        "入",
        -7.479103830819872
      ],
      [
        "本",
        -7.483711044191693
      ],
      [
        "任何",
        -7.484743983204025
      ],
      [
        "格",
        -7.485262160241151
      ],
      [
        "车",
        -7.48594948900265
      ],
      [
        "信",
        -7.488666684691006
      ],
      [
        "时，",
        -7.496618027545312
      ],
      [
        "它们",
        -7.5019590095351685
      ],
      [
        "怎么",
        -7.505173583209947
      ],
      [
        "形",
        -7.506001000691711
      ],
      [
        "两个",
        -7.506299943637657
      ],
      [
        "新",
        -7.5086523567321795
      ],
      [
        "阿",
        -7.509693002827797
      ],
      [
        "感到",
        -7.510620998743578
      ],
      [
        "明",
        -7.519355845908484
      ],
      [
        "半",
        -7.520460881828349
      ],
      [
        "亚",
        -7.522627427141817
      ],
      [
        "完全",
        -7.525076214150197
      ],
      [
        "如",
        -7.5257559274067685
      ],
      [
        "落",
        -7.527175630053538
      ],
      [
        "别",
        -7.527825926831021
      ],
      [
        "一些",
        -7.538643130482853
      ],
      [
        "原",
        -7.541373411527916
      ],
      [
        "战",
        -7.541653343596639
      ],
      [
        "一样",
        -7.544860125662115
      ],
      [
        "员",
        -7.551397098199949
      ],
      [
        "如果",
        -7.552766605373559
      ],
      [
        "号",
        -7.555327749264858
      ],
      [
        "空",
        -7.55635192190449
      ],
      [
        "量",
        -7.558576337993776
      ],
      [
        "河",
        -7.559281048952393
      ],
      [
        "次",
        -7.566034615139435
      ],
      [
        "这里",
        -7.568439725759935
      ],
      [
        "儿",
        -7.569548968892004
      ],
      [
        "强",
        -7.5703554494576615
      ],
      [
        "安",
        -7.572304676210077
      ],
      [
        "上，",
        -7.573890598124926
      ],
      [
        "极",
        -7.5756659330395575
      ],
      [
        " 　　“你",
        -7.576615508107334
      ],
      [
        "其",
        -7.5854130137586235
      ],
      [
        "反",
        -7.5855838646234215
      ],
      [
        "美",
        -7.586669225980904
      ],
      [
        "应该",
        -7.599206923733352
      ],
      [
        "为什么",
        -7.604641035283041
      ],
      [
        "需要",
        -7.615873669354912
      ],
      [
        "，因为",
        -7.617244139197181
      ],
      [
        "提",
        -7.619319272515865
      ],
      [
        "树",
        -7.619922961481818
      ],
      [
        "必须",
        -7.621246055268763
      ],
      [
        "只是",
        -7.622056686512979
      ],
      [
        "通",
        -7.622307458833085
      ],
      [
        "吃",
        -7.623625862670519
      ],
      [
        "一直",
        -7.624385220652092
      ],
      [
        "公",
        -7.630425954411738
      ],
      [
        "飞",
        -7.632429249445673
      ],
      [
        "神",
        -7.633580999532576
      ],
      [
        "，那",
        -7.636619429736083
      ],
      [
        "万",
        -7.639041728736759
      ],
      [
        "队",
        -7.64060059342199
      ],
      [
        "呢？",
        -7.643917535458508
      ],
      [
        "一点",
        -7.6458832125463925
      ],
      [
        "到了",
        -7.6459876551795745
      ],
      [
        "表",
        -7.646111425383083
      ],
      [
        "黑",
        -7.646343588732799
      ],
      [
        "雷",
        -7.647028599529156
      ],
      [
        "文",
        -7.650023872731957
      ],
      [
        "上的",
        -7.653704402451989
      ],
      [
        "位",
        -7.659351817558948
      ],
      [
        "或",
        -7.660564021319775
      ],
      [
        "卡",
        -7.661202464881265
      ],
      [
        "2",
        -7.663064151287605
      ],
      [
        "无法",
        -7.664102243841683
      ],
      [
        "往",
        -7.668023071171474
      ],
      [
        "孩子",
        -7.675760561553204
      ],
      [
        "连",
        -7.676959885881745
      ],
      [
        "‘",
        -7.677881014325079
      ],
      [
        "间",
        -7.682776467921816
      ],
      [
        "’",
        -7.6836573704715345
      ],
      [
        "只有",
        -7.688876671512718
      ],
      [
        "波",
        -7.689001249335568
      ],
      [
        "由",
        -7.689218600236531
      ],
      [
        "纳",
        -7.69016674211365
      ],
      [
        "视",
        -7.692411286472247
      ],
      [
        "巴",
        -7.693905377706296
      ],
      [
        "认为",
        -7.7000853809642535
      ],
      [
        "尽",
        -7.701146819589603
      ],
      [
        "惊",
        -7.703544980497833
      ],
      [
        "，然后",
        -7.707691328742129
      ],
      [
        "请",
        -7.709001915949955
      ],
      [
        "人们",
        -7.710195951763696
      ],
      [
        "3",
        -7.720716130650429
      ],
      [
        "交",
        -7.724088408911237
      ],
      [
        "，它",
        -7.725819052451081
      ],
      [
        "说，",
        -7.726255422734036
      ],
      [
        "，她",
        -7.726676413826382
      ],
      [
        "目",
        -7.7316943688255595
      ],
      [
        "离",
        -7.734906634061517
      ],
      [
        "中，",
        -7.737056626120896
      ],
      [
        "奇",
        -7.737952616484952
      ],
      [
        "冰",
        -7.738426443047478
      ],
      [
        "关",
        -7.742275131553258
      ],
      [
        "你的",
        -7.745471699642906
      ],
      [
        "望",
        -7.746933729354932
      ],
      [
        "。他们",
        -7.7482911851708565
      ],
      [
        "还有",
        -7.749022533903229
      ],
      [
        "进行",
        -7.749859552378046
      ],
      [
        "受",
        -7.751335239682749
      ],
      [
        "每",
        -7.75175737407435
      ],
      [
        "机器人",
        -7.753914930466864
      ],
      [
        "五",
        -7.757066152301938
      ],
      [
        "则",
        -7.758701584256235
      ],
      [
        "维",
        -7.760656826451607
      ],
      [
        "教",
        -7.761667041711728
      ],
      [
        "离开",
        -7.762151995150797
      ],
      [
        "夜",
        -7.765217081522888
      ],
      [
        "希望",
        -7.766600276201862
      ],
      [
        "化",
        -7.768437900196892
      ],
      [
        "但",
        -7.770953331963446
      ],
      [
        "停",
        -7.77099258267477
      ],
      [
        "，而且",
        -7.771646868949212
      ],
      [
        "实",
        -7.773170198002482
      ],
      [
        "石",
        -7.7738975642935255
      ],
      [
        "深",
        -7.774518888091469
      ],
      [
        "也许",
        -7.776431612101456
      ],
      [
        "热",
        -7.778886450094323
      ],
      [
        "非常",
        -7.784139323743009
      ],
      [
        "沙",
        -7.785493762357213
      ],
      [
        "种",
        -7.785756210224621
      ],
      [
        "先",
        -7.786511626563557
      ],
      [
        "片",
        -7.787663123941037
      ],
      [
        "科",
        -7.791546543435853
      ],
      [
        "器",
        -7.791658863179665
      ],
      [
        "。她",
        -7.793352677770008
      ],
      [
        "了一",
        -7.7956577873865225
      ],
      [
        "爱",
        -7.796360009720511
      ],
      [
        "的时候，",
        -7.804845791785187
      ],
      [
        "。这",
        -7.805415476077393
      ],
      [
        "安德",
        -7.806391294118157
      ],
      [
        "微",
        -7.806896536411738
      ],
      [
        "林",
        -7.806927430016435
      ],
      [
        "也不",
        -7.807293083610766
      ],
      [
        "服",
        -7.807385285499439
      ],
      [
        "代",
        -7.807578632284459
      ],
      [
        "太阳",
        -7.807844031423189
      ],
      [
        "击",
        -7.809353612268792
      ],
      [
        "言",
        -7.811729551017892
      ],
      [
        "都是",
        -7.812299516516649
      ],
      [
        "倒",
        -7.825048491595666
      ],
      [
        "花",
        -7.826651270078061
      ],
      [
        "应",
        -7.827363845822166
      ],
      [
        "装",
        -7.828645941398088
      ],
      [
        "一次",
        -7.829429122091918
      ],
      [
        "突然",
        -7.829622935837008
      ],
      [
        "图",
        -7.82962717614339
      ],
      [
        "过去",
        -7.8345353266436195
      ],
      [
        "岛",
        -7.841825931266751
      ],
      [
        "接",
        -7.844789584739308
      ],
      [
        "是个",
        -7.845555438194566
      ],
      [
        "这是",
        -7.846645822110679
      ],
      [
        "命",
        -7.8478010038905825
      ],
      [
        "谈",
        -7.848131548739541
      ],
      [
        "金",
        -7.852865684559282
      ],
      [
        "的地方",
        -7.854099594934581
      ],
      [
        "木",
        -7.854573929739779
      ],
      [
        "能够",
        -7.857097478463308
      ],
      [
        "掉",
        -7.857602566396878
      ],
      [
        "角",
        -7.85843015264574
      ],
      [
        "数",
        -7.8586802382777705
      ],
      [
        "其他",
        -7.858726808448965
      ],
      [
        "，但是",
        -7.862063005290148
      ],
      [
        "该",
        -7.862378107779282
      ],
      [
        "东西",
        -7.8645719714011815
      ],
      [
        "不过",
        -7.865409595979655
      ],
      [
        "照",
        -7.8715755949797135
      ],
      [
        "传",
        -7.871731613160492
      ],
      [
        "后，",
        -7.872942138361767
      ],
      [
        "\"",
        -7.873164920110831
      ],
      [
        "奥",
        -7.874565583310806
      ],
      [
        "中的",
        -7.876070297153985
      ],
      [
        "人的",
        -7.876943742623277
      ],
      [
        "这么",
        -7.8786346543433865
      ],
      [
        "层",
        -7.879345583094489
      ],
      [
        "总",
        -7.881570760318709
      ],
      [
        "清",
        -7.8892099445697
      ],
      [
        "活",
        -7.8901610744585025
      ],
      [
        "觉得",
        -7.89067757726928
      ],
      [
        "步",
        -7.892232737991531
      ],
      [
        "。但",
        -7.89352262402568
      ],
      [
        "起来",
        -7.901595055494965
      ],
      [
        " 　　他",
        -7.903157454942113
      ],
      [
        "所有",
        -7.903871864519905
      ],
      [
        "发生",
        -7.910568744079635
      ],
      [
        "塔",
        -7.911126098713632
      ],
      [
        "制",
        -7.914721136860974
      ],
      [
        "如此",
        -7.914995739663857
      ],
      [
        "当然",
        -7.917603299609809
      ],
      [
        "百",
        -7.917736721383198
      ],
      [
        "。你",
        -7.9189426097380675
      ],
      [
        "拿",
        -7.91959823526326
      ],
      [
        "站",
        -7.9226310049279025
      ],
      [
        "相信",
        -7.924737575898588
      ],
      [
        "随",
        -7.92638456747288
      ],
      [
        "工作",
        -7.9270992823611195
      ],
      [
        "字",
        -7.928047476754221
      ],
      [
        "少",
        -7.928777673540344
      ],
      [
        "的话",
        -7.929828379530479
      ],
      [
        "变",
        -7.934201652738967
      ],
      [
        "直",
        -7.934349515896008
      ],
      [
        "回答",
        -7.934812142719773
      ],
      [
        "沉",
        -7.93807680099618
      ],
      [
        "难",
        -7.938432933211125
      ],
      [
        "他们的",
        -7.9385842801540765
      ],
      [
        "并不",
        -7.939242819337807
      ],
      [
        "测",
        -7.942475906601075
      ],
      [
        "女",
        -7.945827240963959
      ],
      [
        "顶",
        -7.9496779445706185
      ],
      [
        "问题",
        -7.949714747202156
      ],
      [
        "航",
        -7.952039815242708
      ],
      [
        "博士",
        -7.964662648717869
      ],
      [
        "。在",
        -7.96597831340252
      ],
      [
        "整",
        -7.9674197851172615
      ],
      [
        "穿",
        -7.969849901620442
      ],
      [
        "推",
        -7.970451564508151
      ],
      [
        "轻",
        -7.971950590276062
      ],
      [
        "低",
        -7.972051569811015
      ],
      [
        "索",
        -7.9723054182541535
      ],
      [
        "密",
        -7.972588649378739
      ],
      [
        "夫",
        -7.972714653935926
      ],
      [
        "一下",
        -7.975856369565912
      ],
      [
        "近",
        -7.976150802092141
      ],
      [
        "似乎",
        -7.976392216298576
      ],
      [
        "几乎",
        -7.978520037842689
      ],
      [
        "完",
        -7.981352167619443
      ],
      [
        "冷",
        -7.98197470516503
      ],
      [
        "讲",
        -7.98225111134451
      ],
      [
        "满",
        -7.982916097172545
      ],
      [
        "是一个",
        -7.9840692242181674
      ],
      [
        "北",
        -7.984239395510134
      ],
      [
        "呢",
        -7.984690732590829
      ],
      [
        "期",
        -7.985675720426226
      ],
      [
        "，也",
        -7.989740416040766
      ],
      [
        "正在",
        -7.990784135533232
      ],
      [
        "千",
        -7.990868737426258
      ],
      [
        "她的",
        -7.991045247899056
      ],
      [
        "冲",
        -7.991665899152128
      ],
      [
        "哈",
        -7.99482325323252
      ],
      [
        "继续",
        -7.994842318507835
      ],
      [
        "宇宙",
        -7.997676019901933
      ],
      [
        "块",
        -7.997997881516042
      ],
      [
        "我们的",
        -8.000082286182575
      ],
      [
        "失",
        -8.00135345586709
      ],
      [
        "越",
        -8.00531510173152
      ],
      [
        "群",
        -8.008344324845798
      ],
      [
        "呢？”",
        -8.00952891401303
      ],
      [
        "4",
        -8.009801935378922
      ],
      [
        "一定",
        -8.010810070798673
      ],
      [
        "条",
        -8.011864819172976
      ],
      [
        "那样",
        -8.012691628840324
      ],
      [
        "萨",
        -8.01366131374462
      ],
      [
        "射",
        -8.015520213383569
      ],
      [
        "错",
        -8.015945575930772
      ],
      [
        "灵",
        -8.017537670906774
      ],
      [
        "找",
        -8.017743418059018
      ],
      [
        "运",
        -8.018509993448463
      ],
      [
        "兰",
        -8.0224021902367
      ],
      [
        "普",
        -8.023601221290125
      ],
      [
        "6",
        -8.025007663355455
      ],
      [
        "脸",
        -8.02538177826824
      ],
      [
        "因为",
        -8.027519891221392
      ],
      [
        "出现",
        -8.029683543240294
      ],
      [
        "的事",
        -8.03464335988739
      ],
      [
        "军",
        -8.041096796773061
      ],
      [
        "收",
        -8.041773341908616
      ],
      [
        "由于",
        -8.042330254890219
      ],
      [
        "语",
        -8.045436109047648
      ],
      [
        "台",
        -8.047424952644253
      ],
      [
        "告诉",
        -8.047433066752037
      ],
      [
        "亮",
        -8.049100396015474
      ],
      [
        "样",
        -8.04990211248429
      ],
      [
        "小时",
        -8.050808839608505
      ],
      [
        "不可能",
        -8.052881462911232
      ],
      [
        "二",
        -8.056634843042442
      ],
      [
        "整个",
        -8.057758659507984
      ],
      [
        "土",
        -8.061445168820349
      ],
      [
        "准备",
        -8.06229851572743
      ],
      [
        "六",
        -8.063557044904794
      ],
      [
        "急",
        -8.065591978604278
      ],
      [
        "影",
        -8.065993260938345
      ],
      [
        "肯定",
        -8.068098892995707
      ],
      [
        "经",
        -8.068774317087135
      ],
      [
        "知",
        -8.069135899171041
      ],
      [
        "紧",
        -8.070813320932412
      ],
      [
        "断",
        -8.07238028360907
      ],
      [
        "生活",
        -8.072524821049253
      ],
      [
        "皮",
        -8.073073167809259
      ],
      [
        "枪",
        -8.073431146143914
      ],
      [
        "杀",
        -8.075468201319067
      ],
      [
        "南",
        -8.078751726406647
      ],
      [
        "找到",
        -8.078792559174582
      ],
      [
        "官",
        -8.07988786269984
      ],
      [
        "5",
        -8.085895764682363
      ],
      [
        "它的",
        -8.086447284363302
      ],
      [
        "计划",
        -8.086927973226471
      ],
      [
        "保罗",
        -8.088101731709472
      ],
      [
        "未",
        -8.088166132631894
      ],
      [
        "工",
        -8.088428286026621
      ],
      [
        "现",
        -8.088657165465456
      ],
      [
        "这时",
        -8.089910550026614
      ],
      [
        "谁",
        -8.090408657373022
      ],
      [
        "算",
        -8.091129537758947
      ],
      [
        "细",
        -8.093431890629358
      ],
      [
        "。我们",
        -8.094368702837698
      ],
      [
        "明白",
        -8.094398457158656
      ],
      [
        "料",
        -8.094410094577043
      ],
      [
        "弹",
        -8.094724112291539
      ],
      [
        "板",
        -8.094873082023888
      ],
      [
        "，就",
        -8.096188288876725
      ],
      [
        "室",
        -8.09732418800376
      ],
      [
        "真的",
        -8.09891828177247
      ],
      [
        "，如果",
        -8.099104801378767
      ],
      [
        "记",
        -8.099305818471066
      ],
      [
        "）",
        -8.099429143908413
      ],
      [
        "许多",
        -8.099525550890199
      ],
      [
        "取",
        -8.099659246238716
      ],
      [
        "古",
        -8.101147692555354
      ],
      [
        "思",
        -8.103925248469567
      ],
      [
        "士",
        -8.106168730801649
      ],
      [
        "太空",
        -8.10690947716299
      ],
      [
        "觉",
        -8.108155580129704
      ],
      [
        "威",
        -8.109662581881878
      ],
      [
        "（",
        -8.110020593205805
      ],
      [
        "报",
        -8.110205061390609
      ],
      [
        "领",
        -8.110514839258506
      ],
      [
        "。如果",
        -8.111032568683079
      ],
      [
        "一条",
        -8.112773925353306
      ],
      [
        "丽",
        -8.113575856009573
      ],
      [
        "式",
        -8.114969265065776
      ],
      [
        "送",
        -8.115358684117101
      ],
      [
        "船长",
        -8.115526995853733
      ],
      [
        "。但是",
        -8.115589618114399
      ],
      [
        "谢",
        -8.118282008971018
      ],
      [
        "巨",
        -8.11911700448984
      ],
      [
        "坐",
        -8.121077037179212
      ],
      [
        "仍",
        -8.121944597541745
      ],
      [
        "论",
        -8.124960902790722
      ],
      [
        "不知道",
        -8.125626929347483
      ],
      [
        "约",
        -8.127402362706201
      ],
      [
        "客",
        -8.127926174345571
      ],
      [
        "发出",
        -8.130384509807914
      ],
      [
        "各",
        -8.130701515533197
      ],
      [
        "几个",
        -8.131048679221541
      ],
      [
        "城",
        -8.133545357889792
      ],
      [
        "然而",
        -8.133617064228288
      ],
      [
        "跑",
        -8.134815251552201
      ],
      [
        "顿",
        -8.134880982221222
      ],
      [
        "但是",
        -8.139180878747277
      ],
      [
        "时候",
        -8.140460155396262
      ],
      [
        "底",
        -8.14219311171427
      ],
      [
        "弗",
        -8.145422480678906
      ],
      [
        "双",
        -8.146169384564534
      ],
      [
        "早",
        -8.147926177195174
      ],
      [
        "不到",
        -8.151611155297875
      ],
      [
        "得到",
        -8.153940097198909
      ],
      [
        "研究",
        -8.154661028124014
      ],
      [
        "下去",
        -8.155624338069039
      ],
      [
        "行星",
        -8.156635523919988
      ],
      [
        "十分",
        -8.159201198873074
      ],
      [
        "7",
        -8.159494220150945
      ],
      [
        "的声音",
        -8.159581065271256
      ],
      [
        "听到",
        -8.159925348703206
      ],
      [
        "八",
        -8.16061362323985
      ],
      [
        "集",
        -8.161734280796459
      ],
      [
        "朋友",
        -8.16398095686057
      ],
      [
        "调",
        -8.165694382544306
      ],
      [
        "然后",
        -8.166013932141768
      ],
      [
        "些",
        -8.167355900373652
      ],
      [
        "登",
        -8.169614246431603
      ],
      [
        "称",
        -8.170367967958274
      ],
      [
        "久",
        -8.17094024190602
      ],
      [
        "张",
        -8.172345191061424
      ],
      [
        "及",
        -8.172406695940658
      ],
      [
        "鲁",
        -8.174611970815315
      ],
      [
        "存在",
        -8.175021843727862
      ],
      [
        "之间",
        -8.17538256955481
      ],
      [
        "脚",
        -8.17680316838958
      ],
      [
        "王",
        -8.177556799437198
      ],
      [
        "如何",
        -8.17869974187949
      ],
      [
        "来，",
        -8.179116405215781
      ],
      [
        "地方",
        -8.179754792067907
      ],
      [
        "看着",
        -8.18061804911665
      ],
      [
        "结",
        -8.181781018822901
      ],
      [
        "卫",
        -8.184033012470103
      ],
      [
        "预",
        -8.184415275466998
      ],
      [
        "管",
        -8.1866062305385
      ],
      [
        "响",
        -8.188699622704863
      ],
      [
        "晚",
        -8.189585242195298
      ],
      [
        "比恩",
        -8.193523994903451
      ],
      [
        "静",
        -8.19414348888475
      ],
      [
        "有什么",
        -8.194439537971647
      ],
      [
        "洞",
        -8.196338493494615
      ],
      [
        "一片",
        -8.1970024369909
      ],
      [
        "警",
        -8.197724302516065
      ],
      [
        "就会",
        -8.197950095159833
      ],
      [
        "闪",
        -8.199437761716569
      ],
      [
        "恩",
        -8.199810311713085
      ],
      [
        "生命",
        -8.202078577282098
      ],
      [
        "球",
        -8.202667617839207
      ],
      [
        "解",
        -8.2041665506814
      ],
      [
        "哥",
        -8.204497046728738
      ],
      [
        "答",
        -8.204797233037986
      ],
      [
        "圆",
        -8.205277534638903
      ],
      [
        "我想",
        -8.20646332581317
      ],
      [
        "曼",
        -8.208405590964418
      ],
      [
        "常",
        -8.208942776452155
      ],
      [
        "问。",
        -8.209172190721246
      ],
      [
        "观",
        -8.209846905520584
      ],
      [
        "之后，",
        -8.210287090298252
      ],
      [
        "型",
        -8.21232947366515
      ],
      [
        "压",
        -8.214297203515123
      ],
      [
        "梦",
        -8.214297203515148
      ],
      [
        "姆",
        -8.216268812961065
      ],
      [
        "起来，",
        -8.216441188017882
      ],
      [
        "类",
        -8.217570190461535
      ],
      [
        ".",
        -8.21863988695155
      ],
      [
        "喊",
        -8.218639886951552
      ],
      [
        "师",
        -8.220943636753205
      ],
      [
        "基",
        -8.226533280264293
      ],
      [
        "东",
        -8.227586625928001
      ],
      [
        "出了",
        -8.227744040328997
      ],
      [
        "那里",
        -8.228710590230829
      ],
      [
        "大家",
        -8.230104918329262
      ],
      [
        "有些",
        -8.231983404648576
      ],
      [
        "事实",
        -8.232038761577268
      ],
      [
        "件",
        -8.232069016091902
      ],
      [
        "清楚",
        -8.233048914911441
      ],
      [
        "危险",
        -8.233399948886468
      ],
      [
        "回到",
        -8.233762936538334
      ],
      [
        "野",
        -8.233788671563284
      ],
      [
        "想到",
        -8.235930718592586
      ],
      [
        "了解",
        -8.237552767544258
      ],
      [
        "伦",
        -8.237723541300614
      ],
      [
        "曾",
        -8.241972973136056
      ],
      [
        "首",
        -8.242249358942203
      ],
      [
        "部分",
        -8.242293283348678
      ],
      [
        "保",
        -8.251651073431379
      ],
      [
        "下，",
        -8.254904419707577
      ],
      [
        "举",
        -8.25818508346341
      ],
      [
        "业",
        -8.25859677551771
      ],
      [
        "温",
        -8.261881569329873
      ],
      [
        "朝",
        -8.26189642787703
      ],
      [
        "势",
        -8.263136609911633
      ],
      [
        "舰",
        -8.266800812462328
      ],
      [
        "有人",
        -8.267324314482186
      ],
      [
        "待",
        -8.267765750086667
      ],
      [
        "吧，",
        -8.268478854030485
      ],
      [
        "摇",
        -8.268527677162458
      ],
      [
        "不要",
        -8.268533386668945
      ],
      [
        "果",
        -8.268957812368491
      ],
      [
        "支",
        -8.269298097124285
      ],
      [
        "书",
        -8.269751165737894
      ],
      [
        "的话，",
        -8.270817699002095
      ],
      [
        "很快",
        -8.271445093323267
      ],
      [
        "的东西",
        -8.271569708472663
      ],
      [
        "出来",
        -8.272022329297503
      ],
      [
        "费",
        -8.272693974005758
      ],
      [
        "模",
        -8.275147177773452
      ],
      [
        "可是",
        -8.275290093568183
      ],
      [
        "立刻",
        -8.275817769141822
      ],
      [
        "接着",
        -8.2763501087354
      ],
      [
        "背",
        -8.276461812090394
      ],
      [
        "睡",
        -8.278560008381223
      ],
      [
        "单",
        -8.280123591812327
      ],
      [
        "云",
        -8.280254468988321
      ],
      [
        "质",
        -8.280328068948243
      ],
      [
        "令",
        -8.28247947772595
      ],
      [
        "适",
        -8.284036011874544
      ],
      [
        "这一",
        -8.28435307976654
      ],
      [
        "谢顿",
        -8.285221735518892
      ],
      [
        "也没有",
        -8.288201549986
      ],
      [
        "不同",
        -8.288646977901681
      ],
      [
        "下来",
        -8.28899374766802
      ],
      [
        "权",
        -8.289117538718724
      ],
      [
        "感觉",
        -8.289941528969685
      ],
      [
        "章",
        -8.291242125835762
      ],
      [
        "0",
        -8.29174748379068
      ],
      [
        "乱",
        -8.292093731346949
      ],
      [
        "红",
        -8.2926470024729
      ],
      [
        "靠",
        -8.296444653906168
      ],
      [
        "致",
        -8.2967885755799
      ],
      [
        "岸",
        -8.297015744731851
      ],
      [
        "，所以",
        -8.297024839835956
      ],
      [
        "成为",
        -8.298224388836228
      ],
      [
        "根",
        -8.298851217024419
      ],
      [
        "看见",
        -8.2999896192449
      ],
      [
        "决定",
        -8.30010755666364
      ],
      [
        "鱼",
        -8.301075827525803
      ],
      [
        "雪",
        -8.301075827525842
      ],
      [
        "甚至",
        -8.302296163563053
      ],
      [
        "迹",
        -8.302365595526565
      ],
      [
        "只能",
        -8.302744706324408
      ],
      [
        "为了",
        -8.303845709028032
      ],
      [
        "乐",
        -8.306065729553247
      ],
      [
        "了一个",
        -8.30620671448752
      ],
      [
        "立",
        -8.306220376997896
      ],
      [
        "眼睛",
        -8.310308237794096
      ],
      [
        "团",
        -8.313178849508645
      ],
      [
        "以前",
        -8.314863432017058
      ],
      [
        "在这",
        -8.315744831935799
      ],
      [
        "升",
        -8.316227344965007
      ],
      [
        "决",
        -8.316330568562961
      ],
      [
        "也是",
        -8.316448281203911
      ],
      [
        "超",
        -8.318444383111192
      ],
      [
        "认",
        -8.322075672481896
      ],
      [
        "方向",
        -8.322115433654222
      ],
      [
        "飞船",
        -8.322191421134278
      ],
      [
        "盖",
        -8.322768773609283
      ],
      [
        "写",
        -8.322792207201555
      ],
      [
        "救",
        -8.324550063042322
      ],
      [
        "伊",
        -8.324989367000835
      ],
      [
        "的小",
        -8.325549827789933
      ],
      [
        "跳",
        -8.328516573246892
      ],
      [
        "父亲",
        -8.329496279844555
      ],
      [
        "道：“",
        -8.329708595433338
      ],
      [
        "破",
        -8.331027489125326
      ],
      [
        "是在",
        -8.334689739376582
      ],
      [
        "道。",
        -8.334758964719882
      ],
      [
        "吉",
        -8.335607228059777
      ],
      [
        "塞",
        -8.336942150056938
      ],
      [
        "醒",
        -8.339171501841978
      ],
      [
        "暗",
        -8.340480271839615
      ],
      [
        "学家",
        -8.341412283994067
      ],
      [
        "游",
        -8.341800070094688
      ],
      [
        "血",
        -8.342300695223841
      ],
      [
        "散",
        -8.342300695223843
      ],
      [
        "自然",
        -8.342593721421167
      ],
      [
        "一天",
        -8.344196713876347
      ],
      [
        "愿",
        -8.346334534864342
      ],
      [
        "区",
        -8.346341319961743
      ],
      [
        "银河",
        -8.346587124607149
      ],
      [
        "试",
        -8.346695352588533
      ],
      [
        "造",
        -8.347223581675433
      ],
      [
        "呼",
        -8.350507764585725
      ],
      [
        "诺",
        -8.35129483728586
      ],
      [
        "情况",
        -8.351865060718756
      ],
      [
        "草",
        -8.35355700478932
      ],
      [
        "并",
        -8.35465706895805
      ],
      [
        "降",
        -8.355369830996878
      ],
      [
        "丝",
        -8.356593782936372
      ],
      [
        "重要",
        -8.356995743062697
      ],
      [
        "哪",
        -8.357586265892866
      ],
      [
        "是什么",
        -8.357883282706295
      ],
      [
        "端",
        -8.360371046025927
      ],
      [
        "态",
        -8.362509409107492
      ],
      [
        "一只",
        -8.363587926921259
      ],
      [
        "品",
        -8.364025921341714
      ],
      [
        "进入",
        -8.36588446979131
      ],
      [
        "句",
        -8.366704975245069
      ],
      [
        "基地",
        -8.367073451330986
      ],
      [
        "消失",
        -8.367112697385597
      ],
      [
        "结果",
        -8.371222853005035
      ],
      [
        "至少",
        -8.372131040861099
      ],
      [
        "其中",
        -8.373407244070286
      ],
      [
        "去。",
        -8.376769729429222
      ],
      [
        "探",
        -8.37681506787898
      ],
      [
        "恶",
        -8.376920412459642
      ],
      [
        "嘴",
        -8.377354383936927
      ],
      [
        "城市",
        -8.379934228586148
      ],
      [
        "所有的",
        -8.3834245751202
      ],
      [
        "绝",
        -8.383559023782812
      ],
      [
        "节",
        -8.384364038227538
      ],
      [
        "浪",
        -8.386701580156302
      ],
      [
        "里，",
        -8.386839756361645
      ],
      [
        "变得",
        -8.387678564829585
      ],
      [
        "产生",
        -8.38800621670771
      ],
      [
        "脑",
        -8.38807039666322
      ],
      [
        "另一",
        -8.389531837101153
      ],
      [
        "逃",
        -8.390453049903424
      ],
      [
        "啊",
        -8.390839102993368
      ],
      [
        "托",
        -8.393533782332245
      ],
      [
        "相当",
        -8.393576606115221
      ],
      [
        "疑",
        -8.39408981274259
      ],
      [
        "道，“",
        -8.395113224738669
      ],
      [
        "景",
        -8.395634408549629
      ],
      [
        "的。”",
        -8.39628614347664
      ],
      [
        "喜欢",
        -8.398990118754021
      ],
      [
        "瑞",
        -8.399893761131425
      ],
      [
        "列",
        -8.399893761809684
      ],
      [
        "精",
        -8.400741791297461
      ],
      [
        "的时候",
        -8.402000243536694
      ],
      [
        "洛",
        -8.40274344307012
      ],
      [
        "短",
        -8.40369514431538
      ],
      [
        "一个人",
        -8.404895797021297
      ],
      [
        "虽然",
        -8.405359296997677
      ],
      [
        "好像",
        -8.405427519492761
      ],
      [
        "这次",
        -8.40585290669164
      ],
      [
        "，这是",
        -8.406864259619251
      ],
      [
        "一切",
        -8.407671249844588
      ],
      [
        "母",
        -8.407781240009479
      ],
      [
        "岁",
        -8.408467284037641
      ],
      [
        "看看",
        -8.411004343905262
      ],
      [
        "受到",
        -8.41137344956579
      ],
      [
        "病",
        -8.413743075550144
      ],
      [
        "铁",
        -8.418563523450995
      ],
      [
        "控制",
        -8.419259496033533
      ],
      [
        "留",
        -8.421052067234879
      ],
      [
        "程",
        -8.422628065891253
      ],
      [
        "任",
        -8.42493305082746
      ],
      [
        "美国",
        -8.426092189287404
      ],
      [
        "众",
        -8.426324901090965
      ],
      [
        "去，",
        -8.427109192706563
      ],
      [
        "了一下",
        -8.427158115194988
      ],
      [
        "隐",
        -8.427786889626542
      ],
      [
        "着，",
        -8.430668783630225
      ],
      [
        "起来。",
        -8.430742667832597
      ],
      [
        "身上",
        -8.432309322504974
      ],
      [
        "仍然",
        -8.432481443250847
      ],
      [
        "吧",
        -8.432644580486276
      ],
      [
        "通过",
        -8.433182804043234
      ],
      [
        "怪",
        -8.435184284084572
      ],
      [
        "回来",
        -8.436291378949122
      ],
      [
        "医生",
        -8.436505529520723
      ],
      [
        "念",
        -8.436603992860407
      ],
      [
        "过来",
        -8.437005543556985
      ],
      [
        "事情",
        -8.437607043737067
      ],
      [
        "的时间",
        -8.438232628641707
      ],
      [
        "那种",
        -8.439842437279353
      ],
      [
        "浮",
        -8.441041869876518
      ],
      [
        "一起",
        -8.441051912120255
      ],
      [
        "根本",
        -8.441304738733207
      ],
      [
        "导",
        -8.441730119598166
      ],
      [
        "显然",
        -8.44198408769993
      ],
      [
        "切",
        -8.443709647847033
      ],
      [
        "联",
        -8.443814214453244
      ],
      [
        "依",
        -8.445996053799574
      ],
      [
        "非",
        -8.446710131332033
      ],
      [
        "消",
        -8.446948437547945
      ],
      [
        "伤",
        -8.448321826176276
      ],
      [
        "激",
        -8.448700563279667
      ],
      [
        "环",
        -8.453842889911249
      ],
      [
        "，并",
        -8.45443622478998
      ],
      [
        "透",
        -8.454932786993545
      ],
      [
        "?”",
        -8.456043703010605
      ],
      [
        "经过",
        -8.457244224533728
      ],
      [
        "莱",
        -8.458111941814249
      ],
      [
        "赶",
        -8.458489969183308
      ],
      [
        "?",
        -8.458863639416043
      ],
      [
        "七",
        -8.45899298729195
      ],
      [
        "分钟",
        -8.459025627797216
      ],
      [
        "解释",
        -8.46160892108945
      ],
      [
        "圣",
        -8.463026267188834
      ],
      [
        "元",
        -8.463424261280734
      ],
      [
        "上面",
        -8.465136577386524
      ],
      [
        "烟",
        -8.465555352954382
      ],
      [
        "即",
        -8.466843332628976
      ],
      [
        "总是",
        -8.46691229919647
      ],
      [
        "准",
        -8.467846071259078
      ],
      [
        "脱",
        -8.468598723232056
      ],
      [
        "专",
        -8.46910685331331
      ],
      [
        "座",
        -8.473062988736999
      ],
      [
        "使用",
        -8.473279747911153
      ],
      [
        "藏",
        -8.473691680399856
      ],
      [
        "玩",
        -8.475223910596139
      ],
      [
        "是否",
        -8.476583997197247
      ],
      [
        "止",
        -8.476706010895928
      ],
      [
        "异",
        -8.478538161775514
      ],
      [
        "距离",
        -8.47861344872151
      ],
      [
        "排",
        -8.479300587886629
      ],
      [
        "亲",
        -8.479483188638053
      ],
      [
        "办法",
        -8.479723780066399
      ],
      [
        "暴",
        -8.479837521984166
      ],
      [
        "规",
        -8.479837666320858
      ],
      [
        "智",
        -8.48034518632441
      ],
      [
        "雨",
        -8.480351396524604
      ],
      [
        "一阵",
        -8.481608428939875
      ],
      [
        "议",
        -8.48248672689325
      ],
      [
        "帝国",
        -8.482706755612377
      ],
      [
        "怕",
        -8.48354502292808
      ],
      [
        "每个",
        -8.484829206161578
      ],
      [
        "弄",
        -8.484988334302745
      ],
      [
        " 　　“那",
        -8.48571709740959
      ],
      [
        "级",
        -8.486538722175684
      ],
      [
        "说话",
        -8.486838811741166
      ],
      [
        "在这里",
        -8.490287095579442
      ],
      [
        "到达",
        -8.493863522022039
      ],
      [
        "灯",
        -8.49589186887188
      ],
      [
        "壁",
        -8.498339959443545
      ],
      [
        "窗",
        -8.498505566066111
      ],
      [
        "民",
        -8.499297512407107
      ],
      [
        "身体",
        -8.500211800607447
      ],
      [
        "若",
        -8.500601453607512
      ],
      [
        "，可是",
        -8.500660578489438
      ],
      [
        "标",
        -8.500687118883992
      ],
      [
        "肉",
        -8.501126112579168
      ],
      [
        "里面",
        -8.501695277313388
      ],
      [
        "二十",
        -8.501860298762036
      ],
      [
        "足",
        -8.503766392943474
      ],
      [
        "行动",
        -8.506187031168231
      ],
      [
        "，不过",
        -8.508109255985383
      ],
      [
        "源",
        -8.508500388649457
      ],
      [
        "迷",
        -8.509029209379278
      ],
      [
        "空间",
        -8.509312522168138
      ],
      [
        "8",
        -8.50949692375037
      ],
      [
        "核",
        -8.510087690533057
      ],
      [
        "终于",
        -8.511311595763958
      ],
      [
        "复",
        -8.512517151284339
      ],
      [
        "娜",
        -8.512738805470336
      ],
      [
        "一位",
        -8.513083737736089
      ],
      [
        "求",
        -8.513770692512296
      ],
      [
        "画",
        -8.514332854675553
      ],
      [
        "对于",
        -8.51435738187279
      ],
      [
        "多少",
        -8.516515922385356
      ],
      [
        "难道",
        -8.516661989050025
      ],
      [
        "刻",
        -8.517449908729468
      ],
      [
        "，现在",
        -8.517474191697723
      ],
      [
        "以为",
        -8.518262863719356
      ],
      [
        "轮",
        -8.519130305127819
      ],
      [
        "才能",
        -8.519519731328723
      ],
      [
        "何",
        -8.519975748266253
      ],
      [
        "，从",
        -8.520281197243804
      ],
      [
        "段",
        -8.522987862965312
      ],
      [
        "周围",
        -8.522993497334092
      ],
      [
        "曾经",
        -8.525943916922163
      ],
      [
        "第一",
        -8.527905467528461
      ],
      [
        "设",
        -8.528057803349153
      ],
      [
        "看来",
        -8.528768508165625
      ],
      [
        "因",
        -8.528886435307378
      ],
      [
        "斯特",
        -8.529696884554902
      ],
      [
        "观察",
        -8.531720872474313
      ],
      [
        "系",
        -8.531975684591012
      ],
      [
        "防",
        -8.532037179338921
      ],
      [
        "声音",
        -8.532435711342105
      ],
      [
        "包",
        -8.534198369855634
      ],
      [
        "味",
        -8.53582936801037
      ],
      [
        "第",
        -8.53620776704183
      ],
      [
        "换",
        -8.537464600941021
      ],
      [
        "架",
        -8.539098588192239
      ],
      [
        "来的",
        -8.541315794553421
      ],
      [
        "兵",
        -8.542619740040049
      ],
      [
        "镜",
        -8.546209934256078
      ],
      [
        "动物",
        -8.547257637842335
      ],
      [
        "历史",
        -8.547367771661278
      ],
      [
        "永远",
        -8.549763549111528
      ],
      [
        "曲",
        -8.55116344495639
      ],
      [
        "独",
        -8.552572697846898
      ],
      [
        "命令",
        -8.55277986065676
      ],
      [
        "肯",
        -8.554824580235124
      ],
      [
        "桌",
        -8.55503299086919
      ],
      [
        "除了",
        -8.555399037980493
      ],
      [
        "颗",
        -8.556283562520022
      ],
      [
        "力量",
        -8.556860739144991
      ],
      [
        "帆",
        -8.55947374176968
      ],
      [
        "严",
        -8.559917838028776
      ],
      [
        "滑",
        -8.560587017777737
      ],
      [
        "的大",
        -8.561675410452919
      ],
      [
        "刚才",
        -8.563016688879443
      ],
      [
        "抱",
        -8.563375641933172
      ],
      [
        "注意",
        -8.564210036573392
      ],
      [
        "，以",
        -8.56435921447362
      ],
      [
        "刚",
        -8.565056793118
      ],
      [
        "瓦",
        -8.565611479824149
      ],
      [
        "至",
        -8.568064936060322
      ],
      [
        "限",
        -8.56953812626017
      ],
      [
        "按",
        -8.569718419400605
      ],
      [
        "弱",
        -8.576870364216848
      ],
      [
        "局",
        -8.576870364216877
      ],
      [
        "初",
        -8.57687036421688
      ],
      [
        "屋",
        -8.576870364216889
      ],
      [
        "这一点",
        -8.578330475156935
      ],
      [
        "吧。”",
        -8.580757137798807
      ],
      [
        "忙",
        -8.582547359157733
      ],
      [
        "令人",
        -8.582980460134664
      ],
      [
        "让我",
        -8.58410258541586
      ],
      [
        "引",
        -8.585546195817777
      ],
      [
        "房",
        -8.585937042126801
      ],
      [
        "一块",
        -8.587101729737633
      ],
      [
        "房间",
        -8.588718732914895
      ],
      [
        "国家",
        -8.590405831205224
      ],
      [
        "示",
        -8.591078418389998
      ],
      [
        "舱",
        -8.591123740823924
      ],
      [
        "第二",
        -8.591161937088254
      ],
      [
        "愿意",
        -8.591703045067046
      ],
      [
        "站在",
        -8.59291977315624
      ],
      [
        "差",
        -8.59341322930881
      ],
      [
        "9",
        -8.594560351317675
      ],
      [
        "同时",
        -8.596491322863365
      ],
      [
        "派",
        -8.59746016737938
      ],
      [
        "项",
        -8.599774313560168
      ],
      [
        "方面",
        -8.603036834786092
      ],
      [
        "懂",
        -8.605000806146823
      ],
      [
        "午",
        -8.605583217329144
      ],
      [
        "安全",
        -8.607245315519283
      ],
      [
        "伸",
        -8.607652269043076
      ],
      [
        "系统",
        -8.610193334740963
      ],
      [
        "全部",
        -8.61197360026477
      ],
      [
        "过了",
        -8.612419185873314
      ],
      [
        "亿",
        -8.613772791969701
      ],
      [
        "无论",
        -8.615503406533835
      ],
      [
        "在那里",
        -8.615749934499776
      ],
      [
        "围",
        -8.617733599995615
      ],
      [
        "毛",
        -8.61789286830868
      ],
      [
        "读",
        -8.6190731575823
      ],
      [
        "旅行",
        -8.619416697940977
      ],
      [
        "露",
        -8.61955282865366
      ],
      [
        "以后",
        -8.621053910724964
      ],
      [
        "顺",
        -8.622029989928343
      ],
      [
        "告",
        -8.622296806031741
      ],
      [
        "坚",
        -8.62255982640811
      ],
      [
        "接受",
        -8.623906168124488
      ],
      [
        "当时",
        -8.624205057067899
      ],
      [
        "广",
        -8.625589768130636
      ],
      [
        "让他",
        -8.626216995861821
      ],
      [
        "一样，",
        -8.627008212678728
      ],
      [
        "方式",
        -8.627428937912377
      ],
      [
        "　",
        -8.627965932012952
      ],
      [
        "音",
        -8.628337126005546
      ],
      [
        "退",
        -8.62975892234894
      ],
      [
        "面前",
        -8.631816716094658
      ],
      [
        "松",
        -8.632149123595024
      ],
      [
        "罪",
        -8.632747567640507
      ],
      [
        "来到",
        -8.633972989783942
      ],
      [
        "护",
        -8.6342840341233
      ],
      [
        "．",
        -8.63574517171369
      ],
      [
        "默",
        -8.636589587943558
      ],
      [
        "三个",
        -8.637115014088678
      ],
      [
        "追",
        -8.638149741480472
      ],
      [
        "展",
        -8.641286830110666
      ],
      [
        "犯",
        -8.641767472178199
      ],
      [
        "A",
        -8.642371701785446
      ],
      [
        "一会儿",
        -8.642534431034992
      ],
      [
        "伯",
        -8.64418467624104
      ],
      [
        "碰",
        -8.644186584260929
      ],
      [
        "成了",
        -8.645495941540817
      ],
      [
        "其实",
        -8.646477736628386
      ],
      [
        "这位",
        -8.646685473880346
      ],
      [
        "钱",
        -8.648434163332357
      ],
      [
        "走了",
        -8.648942310902349
      ],
      [
        "只要",
        -8.649999382208314
      ],
      [
        "孩子们",
        -8.650744672119599
      ],
      [
        "缩",
        -8.652699861320015
      ],
      [
        "在一起",
        -8.652729956742911
      ],
      [
        "食",
        -8.65321544277081
      ],
      [
        "确",
        -8.653239520596475
      ],
      [
        "摆",
        -8.655145597712071
      ],
      [
        "注",
        -8.655466747221585
      ],
      [
        "地区",
        -8.655530697059575
      ],
      [
        "即使",
        -8.656367465629796
      ],
      [
        "迪",
        -8.656370538801305
      ],
      [
        "史",
        -8.65753087450255
      ],
      [
        "皇",
        -8.658175737145392
      ],
      [
        "容",
        -8.658536223463447
      ],
      [
        "带着",
        -8.658769248015187
      ],
      [
        "同样",
        -8.659123452787592
      ],
      [
        "或许",
        -8.659547708219005
      ],
      [
        "并没有",
        -8.661591723501214
      ],
      [
        "具",
        -8.661893617385788
      ],
      [
        "泰",
        -8.661902379962578
      ],
      [
        "存",
        -8.662625347052316
      ],
      [
        "息",
        -8.664141164705669
      ],
      [
        "坦",
        -8.66437075509615
      ],
      [
        "幻",
        -8.664370755096163
      ],
      [
        "礼",
        -8.664370755096186
      ],
      [
        "今天",
        -8.66442020319246
      ],
      [
        "黄",
        -8.66498880206775
      ],
      [
        "莫",
        -8.665607231250878
      ],
      [
        "空气",
        -8.666751632171113
      ],
      [
        "把它",
        -8.667088303892289
      ],
      [
        "速",
        -8.667238398334366
      ],
      [
        "或者",
        -8.66828018573727
      ],
      [
        "电脑",
        -8.669458573426372
      ],
      [
        "贝莱",
        -8.669573842125136
      ],
      [
        "爬",
        -8.670568481585022
      ],
      [
        "不管",
        -8.671249698663043
      ],
      [
        "《",
        -8.671812649667954
      ],
      [
        "一声",
        -8.672510613652477
      ],
      [
        "埃",
        -8.67305836054565
      ],
      [
        "艾",
        -8.674928953011715
      ],
      [
        "宽",
        -8.674929859073764
      ],
      [
        "》",
        -8.676804859561969
      ],
      [
        "兹",
        -8.677430589176947
      ],
      [
        "露出",
        -8.677548252295875
      ],
      [
        "是不是",
        -8.678385899627337
      ],
      [
        "怀疑",
        -8.68073679418129
      ],
      [
        "关系",
        -8.681236782759651
      ],
      [
        "际",
        -8.6817630751822
      ],
      [
        "赫",
        -8.68182190245297
      ],
      [
        "洲",
        -8.682367073884656
      ],
      [
        "正是",
        -8.682658088904702
      ],
      [
        "巨大的",
        -8.68275752724615
      ],
      [
        "战争",
        -8.682945440933981
      ],
      [
        "撞",
        -8.683710097068342
      ],
      [
        "临",
        -8.684340216791092
      ],
      [
        "机会",
        -8.685845322200198
      ],
      [
        "至于",
        -8.685918493773656
      ],
      [
        "产",
        -8.686368405995584
      ],
      [
        "不可",
        -8.686672040315145
      ],
      [
        "阴",
        -8.686864673712225
      ],
      [
        "必",
        -8.68765911746252
      ],
      [
        "世",
        -8.69168934204274
      ],
      [
        "除",
        -8.691933496804111
      ],
      [
        "保持",
        -8.692029942408109
      ],
      [
        "的确",
        -8.692850580354495
      ],
      [
        "后来",
        -8.694081866018472
      ],
      [
        "别人",
        -8.694271433746408
      ],
      [
        "艇",
        -8.696388554903491
      ],
      [
        "水手",
        -8.696453065116485
      ],
      [
        "公里",
        -8.69730324721114
      ],
      [
        "时代",
        -8.697867810014543
      ],
      [
        "信息",
        -8.69824415762982
      ],
      [
        "越来越",
        -8.69894545423537
      ],
      [
        "一般",
        -8.699007139042298
      ],
      [
        "般",
        -8.699519920476419
      ],
      [
        "计",
        -8.699578056151083
      ],
      [
        "演",
        -8.703430837288401
      ],
      [
        "灰",
        -8.706648343170553
      ],
      [
        "墙",
        -8.707089034728737
      ],
      [
        "纸",
        -8.707293088496206
      ],
      [
        "湖",
        -8.70922982241066
      ],
      [
        "改变",
        -8.709244327855803
      ],
      [
        "积",
        -8.709876234821774
      ],
      [
        "战斗",
        -8.710315332089076
      ],
      [
        "钟",
        -8.710678711089507
      ],
      [
        "原因",
        -8.710700438424578
      ],
      [
        "住了",
        -8.712729876836663
      ],
      [
        "故",
        -8.71302383048895
      ],
      [
        "目前",
        -8.714181938647139
      ],
      [
        "下面",
        -8.717371293890906
      ],
      [
        "建",
        -8.719154524507095
      ],
      [
        "否",
        -8.72115432464257
      ],
      [
        "察",
        -8.722345252334625
      ],
      [
        "投",
        -8.724204060012115
      ],
      [
        "上帝",
        -8.725565605074353
      ],
      [
        "九",
        -8.72617385703266
      ],
      [
        "”号",
        -8.72693930028976
      ],
      [
        "世纪",
        -8.726942385888623
      ],
      [
        "程心",
        -8.727403840540969
      ],
      [
        "武器",
        -8.727692657917675
      ],
      [
        "术",
        -8.728060611737225
      ],
      [
        "猛",
        -8.72880630334101
      ],
      [
        "效",
        -8.728806303341036
      ],
      [
        "盘",
        -8.730125129729068
      ],
      [
        "很多",
        -8.730868352923743
      ],
      [
        "特别",
        -8.73178942888067
      ],
      [
        "呆",
        -8.732768011911261
      ],
      [
        "蒙",
        -8.736081467088052
      ],
      [
        "够",
        -8.736431126850121
      ],
      [
        "共",
        -8.73740764335313
      ],
      [
        "堆",
        -8.737409929890555
      ],
      [
        "简单",
        -8.737596586044269
      ],
      [
        "害",
        -8.737653355203388
      ],
      [
        "延",
        -8.738074823507567
      ],
      [
        "怎样",
        -8.738782144184658
      ],
      [
        "想要",
        -8.74164505833734
      ],
      [
        "查",
        -8.742990259674643
      ],
      [
        "后面",
        -8.743273356413727
      ],
      [
        "固",
        -8.743409947668393
      ],
      [
        "旅",
        -8.743689702136773
      ],
      [
        "文明",
        -8.743692937691538
      ],
      [
        "摩",
        -8.745417803170874
      ],
      [
        "著",
        -8.746758912495089
      ],
      [
        "社会",
        -8.747874249452412
      ],
      [
        "绕",
        -8.748773688117694
      ],
      [
        "留下",
        -8.74927939235841
      ],
      [
        "率",
        -8.749446183073982
      ],
      [
        "份",
        -8.751936027492945
      ],
      [
        "楼",
        -8.752140694538356
      ],
      [
        "争",
        -8.75363547443183
      ],
      [
        "岩",
        -8.75374548851839
      ],
      [
        "英",
        -8.754089294194884
      ],
      [
        "是因为",
        -8.754655360571121
      ],
      [
        "碎",
        -8.754842486015006
      ],
      [
        "付",
        -8.754842486015011
      ],
      [
        "00",
        -8.755904920785392
      ],
      [
        "确定",
        -8.75653875455546
      ],
      [
        "想法",
        -8.757245176753626
      ],
      [
        "耳",
        -8.757515872761898
      ],
      [
        "刺",
        -8.758230023000209
      ],
      [
        "麦",
        -8.758908909626136
      ],
      [
        "要求",
        -8.758947921028865
      ],
      [
        "证",
        -8.759286200807457
      ],
      [
        "案",
        -8.759994550048052
      ],
      [
        "唯一",
        -8.761545390116197
      ],
      [
        "这件事",
        -8.764182320965958
      ],
      [
        "结束",
        -8.764528769807214
      ],
      [
        "翻",
        -8.765039718782846
      ],
      [
        "乘",
        -8.76503971878287
      ],
      [
        "坐在",
        -8.765053417830881
      ],
      [
        "教授",
        -8.765097224658758
      ],
      [
        "尖",
        -8.765723245782166
      ],
      [
        "商",
        -8.766407240310185
      ],
      [
        "呀",
        -8.767776634513867
      ],
      [
        "征",
        -8.769147906529657
      ],
      [
        "套",
        -8.769834248327843
      ],
      [
        "狂",
        -8.77043312890154
      ],
      [
        "毫无",
        -8.770475087005
      ],
      [
        "成功",
        -8.774303223811703
      ],
      [
        "聚",
        -8.776032615035202
      ],
      [
        "床",
        -8.776032615035225
      ],
      [
        "旧",
        -8.77672370003867
      ],
      [
        "杰西卡",
        -8.77672392100473
      ],
      [
        "顾",
        -8.77810730449336
      ],
      [
        "技术",
        -8.778891280130972
      ],
      [
        "崔维兹",
        -8.780355273719401
      ],
      [
        "淡",
        -8.782965051533177
      ],
      [
        "确实",
        -8.783105639934186
      ],
      [
        "酒",
        -8.783660945757308
      ],
      [
        "月球",
        -8.784020730194776
      ],
      [
        "劳",
        -8.78505418855984
      ],
      [
        "副",
        -8.785054188698886
      ],
      [
        "旁",
        -8.785094220320719
      ],
      [
        "院",
        -8.787147699497119
      ],
      [
        "圈",
        -8.78714769949714
      ],
      [
        "多么",
        -8.787557728284593
      ],
      [
        "海岸",
        -8.788873989452945
      ],
      [
        "药",
        -8.789945882391068
      ],
      [
        "艘",
        -8.790429241560801
      ],
      [
        "绝对",
        -8.790473155640822
      ],
      [
        "帮",
        -8.792600191067812
      ],
      [
        "助",
        -8.794005953180069
      ],
      [
        "变化",
        -8.7950093293265
      ],
      [
        "空中",
        -8.795666456453219
      ],
      [
        "地球上",
        -8.797539976192406
      ],
      [
        "烈",
        -8.797871679511777
      ],
      [
        "勒",
        -8.798387711317591
      ],
      [
        "贝",
        -8.798548592290198
      ],
      [
        "科学",
        -8.799561988753055
      ],
      [
        "混",
        -8.801217575761507
      ],
      [
        "餐",
        -8.801926292983353
      ],
      [
        "重新",
        -8.802912175681726
      ],
      [
        "苦",
        -8.804644673231408
      ],
      [
        "抬",
        -8.804766180570812
      ],
      [
        "出去",
        -8.80539445936478
      ],
      [
        "炮",
        -8.8058836732474
      ],
      [
        "假",
        -8.806567620715654
      ],
      [
        "另一个",
        -8.806663800620928
      ],
      [
        "易",
        -8.808153720218046
      ],
      [
        "驶",
        -8.808292481851941
      ],
      [
        "刀",
        -8.80832745255069
      ],
      [
        "变成",
        -8.808605276530745
      ],
      [
        "年轻",
        -8.810385567509961
      ],
      [
        "震",
        -8.810470310422401
      ],
      [
        "天空",
        -8.815090836935415
      ],
      [
        "根据",
        -8.81714913476857
      ],
      [
        "封",
        -8.8190879576382
      ],
      [
        "猜",
        -8.819087957638242
      ],
      [
        "考虑",
        -8.819229402382422
      ],
      [
        "高兴",
        -8.819641299782251
      ],
      [
        "各种",
        -8.822082644109484
      ],
      [
        "说：“我",
        -8.82271700564807
      ],
      [
        "寒",
        -8.824149428816188
      ],
      [
        "饭",
        -8.8241494288162
      ],
      [
        "星球",
        -8.825933435857339
      ],
      [
        "尽管",
        -8.82645761089422
      ],
      [
        "旋",
        -8.827053241981378
      ],
      [
        "航行",
        -8.827196713384383
      ],
      [
        "显得",
        -8.827557640844528
      ],
      [
        "灭",
        -8.828402996509634
      ],
      [
        "置",
        -8.830247048502143
      ],
      [
        "不断",
        -8.830564430417095
      ],
      [
        "衣",
        -8.831017771382236
      ],
      [
        "例",
        -8.83142483344936
      ],
      [
        "说：",
        -8.831503299463964
      ],
      [
        "选择",
        -8.8321647084841
      ],
      [
        "组",
        -8.833814732143
      ],
      [
        "因此",
        -8.835300226174912
      ],
      [
        "啦",
        -8.835815619671045
      ],
      [
        "华",
        -8.836258258371807
      ],
      [
        "作为",
        -8.837342044668876
      ],
      [
        "形成",
        -8.83820246041784
      ],
      [
        "荒",
        -8.840225769950031
      ],
      [
        "务",
        -8.840743166640452
      ],
      [
        "状",
        -8.840915947463259
      ],
      [
        "母亲",
        -8.841283173791163
      ],
      [
        "笔",
        -8.842438160132705
      ],
      [
        "帕",
        -8.843176712569914
      ],
      [
        "禁",
        -8.844655455840421
      ],
      [
        "舰队",
        -8.84551264849521
      ],
      [
        "外面",
        -8.846178675084778
      ],
      [
        "未来",
        -8.847595590126183
      ],
      [
        "备",
        -8.847953648526303
      ],
      [
        "说道，“",
        -8.849571144471623
      ],
      [
        "前进",
        -8.84980243125663
      ],
      [
        "略",
        -8.849848345609802
      ],
      [
        "慢",
        -8.851795713919525
      ],
      [
        "猎",
        -8.852082151349835
      ],
      [
        "抗",
        -8.852082151349848
      ],
      [
        "没有任何",
        -8.852524381685265
      ],
      [
        "穿过",
        -8.852790321059189
      ],
      [
        "还没有",
        -8.852879369920345
      ],
      [
        "担心",
        -8.853284247638234
      ],
      [
        "迫",
        -8.855068342306701
      ],
      [
        "减",
        -8.85581628546301
      ],
      [
        "——”",
        -8.856715326197374
      ],
      [
        "啊！",
        -8.857406312023652
      ],
      [
        "厚",
        -8.858063477314822
      ],
      [
        "坏",
        -8.859323240484397
      ],
      [
        "森",
        -8.860660356493305
      ],
      [
        "政府",
        -8.864102949988087
      ],
      [
        "同意",
        -8.86619302725775
      ],
      [
        "贵",
        -8.866346656813032
      ],
      [
        "闭",
        -8.866346656813056
      ],
      [
        "这就是",
        -8.867360227270837
      ],
      [
        "既然",
        -8.86759629991273
      ],
      [
        "首先",
        -8.867879751350085
      ],
      [
        "显",
        -8.869982139998132
      ],
      [
        "粗",
        -8.870893841391478
      ],
      [
        "完成",
        -8.87139190607995
      ],
      [
        "网",
        -8.873175211092265
      ],
      [
        "必要",
        -8.873864071315907
      ],
      [
        "戴",
        -8.875035166688473
      ],
      [
        "精神",
        -8.876240415073404
      ],
      [
        "10",
        -8.877265811511776
      ],
      [
        "守",
        -8.877753624056702
      ],
      [
        "状态",
        -8.877995987587141
      ],
      [
        "突",
        -8.87844295035974
      ],
      [
        "香",
        -8.879284431781818
      ],
      [
        "鸟",
        -8.879284431781837
      ],
      [
        "另外",
        -8.879670567835882
      ],
      [
        "脸上",
        -8.880704525845744
      ],
      [
        "充满",
        -8.882700300159886
      ],
      [
        "牙",
        -8.886202133251718
      ],
      [
        "奇怪",
        -8.88843193135219
      ],
      [
        "冬",
        -8.889292213044165
      ],
      [
        "冒",
        -8.891510643230017
      ],
      [
        "罗辑",
        -8.89335562415277
      ],
      [
        "打开",
        -8.894671172248541
      ],
      [
        "富",
        -8.897811553607939
      ],
      [
        "班",
        -8.89783919089044
      ],
      [
        "敬",
        -8.899401163317524
      ],
      [
        "斗",
        -8.899652140571181
      ],
      [
        "骨",
        -8.900183024146292
      ],
      [
        "龙",
        -8.900906720958801
      ],
      [
        "选",
        -8.900955411366926
      ],
      [
        "鬼",
        -8.900965496759738
      ],
      [
        "表示",
        -8.901617512837225
      ],
      [
        "界",
        -8.902364139064499
      ],
      [
        "哪里",
        -8.90330409328249
      ],
      [
        "岩石",
        -8.904590690420704
      ],
      [
        "作用",
        -8.905651974316378
      ],
      [
        "菲",
        -8.905673126442021
      ],
      [
        "代表",
        -8.90700946482532
      ],
      [
        "晚上",
        -8.910018362611762
      ],
      [
        "影响",
        -8.911050037738537
      ],
      [
        "宁",
        -8.911193313122943
      ],
      [
        "修",
        -8.911193752199829
      ],
      [
        "附近",
        -8.911311094264235
      ],
      [
        "等待",
        -8.912645905850727
      ],
      [
        "移",
        -8.912771966558793
      ],
      [
        "打算",
        -8.913923535195288
      ],
      [
        "英国",
        -8.914257322708133
      ],
      [
        "拥有",
        -8.916844084774265
      ],
      [
        "明显",
        -8.91782322672049
      ],
      [
        "杜",
        -8.91913311895227
      ],
      [
        "左",
        -8.919798584176654
      ],
      [
        "工程师",
        -8.920077679429756
      ],
      [
        "谋",
        -8.920728984849232
      ],
      [
        "居",
        -8.921296950911564
      ],
      [
        "软",
        -8.92152770689406
      ],
      [
        "问道。",
        -8.92177608061246
      ],
      [
        "志",
        -8.923127067405488
      ],
      [
        "秒",
        -8.923127067405545
      ],
      [
        "今",
        -8.923544450984071
      ],
      [
        "园",
        -8.926333482806644
      ],
      [
        "提出",
        -8.927475010068443
      ],
      [
        "仅",
        -8.92767500935997
      ],
      [
        "e",
        -8.928745059408193
      ],
      [
        "据",
        -8.928757154388691
      ],
      [
        "黑暗",
        -8.928801092192192
      ],
      [
        "帮助",
        -8.928918916269232
      ],
      [
        "缺",
        -8.929550212387245
      ],
      [
        "仔细",
        -8.93037657089028
      ],
      [
        "右",
        -8.931028655303715
      ],
      [
        "记得",
        -8.933293076168317
      ],
      [
        "吹",
        -8.933585730154974
      ],
      [
        "怒",
        -8.935971267585344
      ],
      [
        "简直",
        -8.937154063845135
      ],
      [
        "漫",
        -8.937637599334032
      ],
      [
        "18",
        -8.937731791916473
      ],
      [
        "境",
        -8.939049702749916
      ],
      [
        "平静",
        -8.939058778108931
      ],
      [
        "稍",
        -8.93926295514899
      ],
      [
        "周",
        -8.940922503818157
      ],
      [
        "显示",
        -8.94435622215872
      ],
      [
        "操",
        -8.944972595139646
      ],
      [
        "族",
        -8.944973619354547
      ],
      [
        "男",
        -8.945564113312106
      ],
      [
        "乎",
        -8.945610550740682
      ],
      [
        "再次",
        -8.945657099065258
      ],
      [
        "握",
        -8.94570642075124
      ],
      [
        "仪",
        -8.946512590451118
      ],
      [
        "含",
        -8.946609926564172
      ],
      [
        "摸",
        -8.94660992656425
      ],
      [
        "注意到",
        -8.947412287687424
      ],
      [
        "烧",
        -8.950645761529168
      ],
      [
        "目标",
        -8.952227219122555
      ],
      [
        "侧",
        -8.952361790906913
      ],
      [
        "堂",
        -8.954837039555056
      ],
      [
        "蒂",
        -8.955663447207645
      ],
      [
        "洋",
        -8.957867216209262
      ],
      [
        "怀",
        -8.958749799959161
      ],
      [
        "遇",
        -8.959031624430347
      ],
      [
        "优",
        -8.95980599359411
      ],
      [
        "证明",
        -8.961861227043553
      ],
      [
        "湾",
        -8.96229976032903
      ],
      [
        "残",
        -8.962299760329042
      ],
      [
        "终",
        -8.9625917755382
      ],
      [
        "律",
        -8.963302987154389
      ],
      [
        "词",
        -8.9639657331295
      ],
      [
        "沿着",
        -8.965236066025287
      ],
      [
        "游戏",
        -8.969917906394834
      ],
      [
        "梯",
        -8.970657518465721
      ],
      [
        "抵",
        -8.970657518480259
      ],
      [
        "!",
        -8.971233158751403
      ],
      [
        "慢慢",
        -8.97249904124727
      ],
      [
        "表面",
        -8.9726509838559
      ],
      [
        "镇",
        -8.97317852807043
      ],
      [
        "港",
        -8.9740202789122
      ],
      [
        "育",
        -8.97486273889534
      ],
      [
        "如果你",
        -8.97643432090631
      ],
      [
        "稳",
        -8.978239694204522
      ],
      [
        "参",
        -8.97843384764856
      ],
      [
        "办",
        -8.97872251474016
      ],
      [
        "零",
        -8.979085717893163
      ],
      [
        "忘",
        -8.979554602711666
      ],
      [
        "途",
        -8.979932457943958
      ],
      [
        "尊",
        -8.979932457943974
      ],
      [
        "第一次",
        -8.980711467881008
      ],
      [
        "雾",
        -8.980779915571091
      ],
      [
        "遭",
        -8.980779915571107
      ],
      [
        "寻找",
        -8.981428393107581
      ],
      [
        "执",
        -8.981628059200702
      ],
      [
        "火山",
        -8.983230377936975
      ],
      [
        "扎",
        -8.984176946234522
      ],
      [
        "意义",
        -8.98495926484322
      ],
      [
        " 　　“是的，",
        -8.985577191172158
      ],
      [
        "意思",
        -8.987970505443997
      ],
      [
        "折",
        -8.992720355219173
      ],
      [
        "印",
        -8.993596335965208
      ],
      [
        "立即",
        -8.996819267670999
      ],
      [
        "职",
        -8.99701958771562
      ],
      [
        "理解",
        -8.9981258581162
      ],
      [
        "赛",
        -9.000472199038668
      ],
      [
        "!”",
        -9.000744155712054
      ],
      [
        "改",
        -9.00131795740235
      ],
      [
        "机器",
        -9.003161904703273
      ],
      [
        "占",
        -9.00393703812829
      ],
      [
        "发展",
        -9.005496513007985
      ],
      [
        "裂",
        -9.005673903414507
      ],
      [
        "喝",
        -9.005673903414554
      ],
      [
        "渐渐",
        -9.00567685939432
      ],
      [
        "迈",
        -9.007413790651086
      ],
      [
        "法国",
        -9.007584525294902
      ],
      [
        "乔",
        -9.008215152902789
      ],
      [
        "隔",
        -9.008284870790447
      ],
      [
        "某种",
        -9.008588900094065
      ],
      [
        "踪",
        -9.009156710371956
      ],
      [
        "沉默",
        -9.009675133701204
      ],
      [
        "容易",
        -9.010223414196185
      ],
      [
        "川陀",
        -9.010904206702856
      ],
      [
        "蓝",
        -9.011051832899003
      ],
      [
        "方法",
        -9.0126327031788
      ],
      [
        "杰",
        -9.012651409829775
      ],
      [
        "虚",
        -9.014403770611047
      ],
      [
        "痛",
        -9.016008800721472
      ],
      [
        "径",
        -9.016158926719047
      ],
      [
        "虫",
        -9.018666888974337
      ],
      [
        "裴洛拉特",
        -9.018797450545264
      ],
      [
        "而且",
        -9.018967784272274
      ],
      [
        "采",
        -9.019374579561248
      ],
      [
        "痛苦",
        -9.019829185745563
      ],
      [
        "悲",
        -9.021442954524165
      ],
      [
        "恐惧",
        -9.021454968615378
      ],
      [
        "怜",
        -9.022326346750326
      ],
      [
        "既",
        -9.022634285526204
      ],
      [
        "喷",
        -9.024095475800475
      ],
      [
        "青",
        -9.024095475800507
      ],
      [
        "妙",
        -9.026755051662047
      ],
      [
        "赞",
        -9.02675505166207
      ],
      [
        "价",
        -9.027524357771318
      ],
      [
        "朗",
        -9.02764315040178
      ],
      [
        "施",
        -9.027643151129208
      ],
      [
        "苏",
        -9.031203272797384
      ],
      [
        "恢复",
        -9.031204623885827
      ],
      [
        "挥",
        -9.031379595176318
      ],
      [
        "咱们",
        -9.032130231666972
      ],
      [
        "叶",
        -9.032988333573266
      ],
      [
        "码",
        -9.033881636640597
      ],
      [
        "造成",
        -9.034412567715815
      ],
      [
        "假如",
        -9.037635652363523
      ],
      [
        "金属",
        -9.040357174637649
      ],
      [
        "看上去",
        -9.04072723473821
      ],
      [
        "难以",
        -9.043590957117054
      ],
      [
        "简",
        -9.044049610712044
      ],
      [
        "抓住",
        -9.044639527472137
      ],
      [
        "胡",
        -9.044668650845551
      ],
      [
        "肩",
        -9.049197642172844
      ],
      [
        "雅",
        -9.051014999907158
      ],
      [
        "建筑",
        -9.051034410966135
      ],
      [
        "死亡",
        -9.051405887028352
      ],
      [
        "希",
        -9.051471808437816
      ],
      [
        "正确",
        -9.053357448211727
      ],
      [
        "腿",
        -9.053747241855156
      ],
      [
        "孤",
        -9.053747241855156
      ],
      [
        "村",
        -9.055572892623417
      ],
      [
        "甲",
        -9.055572892623449
      ],
      [
        "尾",
        -9.05648696940581
      ],
      [
        "婚",
        -9.056486969405846
      ],
      [
        "恒星",
        -9.056781964282413
      ],
      [
        "闻",
        -9.057401882489106
      ],
      [
        "捕",
        -9.058317633404886
      ],
      [
        "沿",
        -9.058754928275118
      ],
      [
        "堡",
        -9.059234223689025
      ],
      [
        "述",
        -9.060097018761292
      ],
      [
        "制造",
        -9.06127613227763
      ],
      [
        "统",
        -9.062080671867768
      ],
      [
        "迅速",
        -9.063845766627391
      ],
      [
        "叹",
        -9.064751478675024
      ],
      [
        "题",
        -9.064930772607978
      ],
      [
        "拍",
        -9.066597348934302
      ],
      [
        "兴趣",
        -9.066642202711348
      ],
      [
        "寻",
        -9.06681480318361
      ],
      [
        "接近",
        -9.066842921529176
      ],
      [
        "铎丝",
        -9.067522139582932
      ],
      [
        "沙漠",
        -9.067671056872772
      ],
      [
        "玛",
        -9.06844660102464
      ],
      [
        "承",
        -9.07098372258596
      ],
      [
        "硬",
        -9.071226986502246
      ],
      [
        "刚刚",
        -9.071521808753264
      ],
      [
        "划",
        -9.071988776839618
      ],
      [
        "避",
        -9.07205860154871
      ],
      [
        "剧",
        -9.07215549160899
      ],
      [
        "齐",
        -9.072155491609045
      ],
      [
        ":",
        -9.07401509219693
      ],
      [
        "比较",
        -9.07419925847105
      ],
      [
        "引起",
        -9.074910050391988
      ],
      [
        "需",
        -9.075563501628984
      ],
      [
        "资",
        -9.07557268544474
      ],
      [
        "居民",
        -9.077049027502326
      ],
      [
        "阔",
        -9.077744699979512
      ],
      [
        "验",
        -9.07778553014532
      ],
      [
        "建立",
        -9.078098461197467
      ],
      [
        "归",
        -9.078679279418772
      ],
      [
        "努力",
        -9.079773612805914
      ],
      [
        "-",
        -9.080551062701849
      ],
      [
        "考",
        -9.081110175919171
      ],
      [
        "徒",
        -9.081488269824613
      ],
      [
        "喜",
        -9.084216970436223
      ],
      [
        "遗",
        -9.085242115336635
      ],
      [
        "群岛",
        -9.08531206630289
      ],
      [
        "校",
        -9.0860299753307
      ],
      [
        "弯",
        -9.086187526246764
      ],
      [
        "飘",
        -9.086187526246835
      ],
      [
        "银",
        -9.086608480661443
      ],
      [
        "不得不",
        -9.087024141712742
      ],
      [
        "仿佛",
        -9.087117017121358
      ],
      [
        "善",
        -9.087130033315589
      ],
      [
        "承认",
        -9.087377257416993
      ],
      [
        "彩",
        -9.088073429542014
      ],
      [
        "意识",
        -9.089835578052226
      ],
      [
        "足够",
        -9.090251821332197
      ],
      [
        "财",
        -9.09185593968011
      ],
      [
        "表现",
        -9.092999483558483
      ],
      [
        "倾",
        -9.093752573582126
      ],
      [
        "营",
        -9.094702241198458
      ],
      [
        "困难",
        -9.094969390372583
      ],
      [
        "库",
        -9.09660428632664
      ],
      [
        "么",
        -9.096961280694138
      ],
      [
        "父",
        -9.100201929604413
      ],
      [
        "材",
        -9.101375287380925
      ],
      [
        "距",
        -9.102700314739515
      ],
      [
        "狗",
        -9.104248852356944
      ],
      [
        "沃",
        -9.10520854525528
      ],
      [
        "计算",
        -9.105559807874268
      ],
      [
        "蛋",
        -9.106169160048683
      ],
      [
        "故事",
        -9.107265287609078
      ],
      [
        "康",
        -9.108092205495854
      ],
      [
        "毒",
        -9.109056553554606
      ],
      [
        "a",
        -9.109056553554655
      ],
      [
        "蚂蚁",
        -9.109057123386155
      ],
      [
        "格兰特",
        -9.110988151922431
      ],
      [
        "街",
        -9.11195230824903
      ],
      [
        "速度",
        -9.112520807283499
      ],
      [
        "属于",
        -9.113514169565395
      ],
      [
        "秘密",
        -9.115907344226457
      ],
      [
        "损",
        -9.117769095886068
      ],
      [
        "田",
        -9.118741858531966
      ],
      [
        "功",
        -9.121183239717759
      ],
      [
        "抽",
        -9.121665836991966
      ],
      [
        "潘克洛夫",
        -9.121665837002318
      ],
      [
        "抓",
        -9.121697292324793
      ],
      [
        "隆",
        -9.122642399491951
      ],
      [
        "恨",
        -9.124598390179713
      ],
      [
        "反应",
        -9.125198446690277
      ],
      [
        "消息",
        -9.126899165156214
      ],
      [
        "柔",
        -9.127539568534946
      ],
      [
        "庄",
        -9.128521886806041
      ],
      [
        "卷",
        -9.128521886806064
      ],
      [
        "壮",
        -9.128521886806077
      ],
      [
        "怎么样",
        -9.12914076814202
      ],
      [
        "诚",
        -9.129505170975122
      ],
      [
        "义",
        -9.129926626675843
      ],
      [
        "训练",
        -9.130504473780015
      ],
      [
        "辆",
        -9.13147464461856
      ],
      [
        "余",
        -9.131474644618574
      ],
      [
        "扬",
        -9.131474644618578
      ],
      [
        "较",
        -9.13226562417172
      ],
      [
        "巧",
        -9.132460837912475
      ],
      [
        "绿",
        -9.132722811639573
      ],
      [
        "市",
        -9.133469493958358
      ],
      [
        "乔治",
        -9.133527024224616
      ],
      [
        "报告",
        -9.135900697659965
      ],
      [
        "直接",
        -9.136408871150596
      ],
      [
        "买",
        -9.13641536572952
      ],
      [
        "养",
        -9.139391558158495
      ],
      [
        "抛",
        -9.140385257380295
      ],
      [
        "魔",
        -9.140385593943765
      ],
      [
        "纪",
        -9.14100120361226
      ],
      [
        "包括",
        -9.141392079229034
      ],
      [
        "吸",
        -9.141404537237324
      ],
      [
        "扰",
        -9.14237663475561
      ],
      [
        "保护",
        -9.143807955901242
      ],
      [
        "宣",
        -9.144371647720703
      ],
      [
        "替",
        -9.144371647720764
      ],
      [
        "兽",
        -9.148373653728772
      ],
      [
        "牛",
        -9.149376662755817
      ],
      [
        "配",
        -9.14937666275584
      ],
      [
        "记忆",
        -9.149389943165144
      ],
      [
        "迟",
        -9.150380678820083
      ],
      [
        "启",
        -9.151385703945737
      ],
      [
        "搞",
        -9.151385703945738
      ],
      [
        "爸爸",
        -9.152395093571451
      ],
      [
        "复杂",
        -9.152566337467373
      ],
      [
        "许",
        -9.152581795759364
      ],
      [
        "幸",
        -9.153389363208625
      ],
      [
        "政",
        -9.1543074586849
      ],
      [
        "宝绮思",
        -9.156426037006707
      ],
      [
        "充",
        -9.157933433231218
      ],
      [
        "袋",
        -9.158431430043537
      ],
      [
        "陆",
        -9.158544893010037
      ],
      [
        "险",
        -9.159061911004
      ],
      [
        "毁",
        -9.159311837128202
      ],
      [
        "士兵",
        -9.161036756525675
      ],
      [
        "欣",
        -9.161491903300416
      ],
      [
        "眉",
        -9.162508163463016
      ],
      [
        "计算机",
        -9.163118815155574
      ],
      [
        "英尺",
        -9.164632858575402
      ],
      [
        "荡",
        -9.16556315539169
      ],
      [
        "资料",
        -9.165897396506583
      ],
      [
        "域",
        -9.166211469417938
      ],
      [
        "滚",
        -9.166583563554942
      ],
      [
        "孔",
        -9.168627508902125
      ],
      [
        "躲",
        -9.16965105035555
      ],
      [
        "担",
        -9.170048832061148
      ],
      [
        "良",
        -9.171701281545165
      ],
      [
        "攻击",
        -9.172999944292386
      ],
      [
        "公司",
        -9.173114206066394
      ],
      [
        "纬",
        -9.174784531404141
      ],
      [
        "爆炸",
        -9.174818772114978
      ],
      [
        "挂",
        -9.175814397521297
      ],
      [
        "伙伴",
        -9.176897364548779
      ],
      [
        "森林",
        -9.17740405201613
      ],
      [
        "亲爱的",
        -9.177916540146658
      ],
      [
        "害怕",
        -9.179232196667577
      ],
      [
        "耐",
        -9.179944002148403
      ],
      [
        "宝",
        -9.179944500873013
      ],
      [
        "凶",
        -9.17994450111497
      ],
      [
        "汉",
        -9.179944501115031
      ],
      [
        "峰",
        -9.184091733230009
      ],
      [
        "可怕的",
        -9.18447794252453
      ],
      [
        "载",
        -9.186171816995717
      ],
      [
        "福",
        -9.186933997951318
      ],
      [
        "皱",
        -9.18825623653007
      ],
      [
        "偏",
        -9.189300077866108
      ],
      [
        "潮",
        -9.191391035050199
      ],
      [
        "殖民",
        -9.191440834732948
      ],
      [
        "矿",
        -9.193486373498274
      ],
      [
        "恐龙",
        -9.193565126771666
      ],
      [
        "r",
        -9.195586111609753
      ],
      [
        "薄",
        -9.197690267899512
      ],
      [
        "况",
        -9.198883624789191
      ],
      [
        "认识",
        -9.201035709067197
      ],
      [
        "提供",
        -9.202289077102787
      ],
      [
        "厌",
        -9.206151449265924
      ],
      [
        "妹",
        -9.207214148522059
      ],
      [
        "油",
        -9.209342941035594
      ],
      [
        "爵士",
        -9.211613884930529
      ],
      [
        "尘",
        -9.213614169760643
      ],
      [
        "奔",
        -9.213614169760655
      ],
      [
        "剩",
        -9.216825406095072
      ],
      [
        "箱",
        -9.217903720162877
      ],
      [
        "候",
        -9.219571959798532
      ],
      [
        "阶",
        -9.224372744791339
      ],
      [
        "疲",
        -9.22653841949224
      ],
      [
        "阿契里斯",
        -9.22979575190983
      ],
      [
        "少校",
        -9.230212045675877
      ],
      [
        "批",
        -9.233063727483966
      ],
      [
        "倍",
        -9.237437708871255
      ],
      [
        "丁",
        -9.23840386903971
      ],
      [
        "泡",
        -9.238534200099293
      ],
      [
        "罩",
        -9.238534200099306
      ],
      [
        "凝",
        -9.23853420009932
      ],
      [
        "劲",
        -9.240730796039056
      ],
      [
        "①",
        -9.241830906050094
      ],
      [
        "免",
        -9.242817295177673
      ],
      [
        "液",
        -9.24293222763595
      ],
      [
        "斜",
        -9.24293222763597
      ],
      [
        "喃",
        -9.24513851622779
      ],
      [
        "左右",
        -9.245321712649396
      ],
      [
        "涌",
        -9.246243488603412
      ],
      [
        "束",
        -9.250395784076357
      ],
      [
        "浓",
        -9.250675628369319
      ],
      [
        "宫",
        -9.254012672278826
      ],
      [
        "凡",
        -9.255127499480622
      ],
      [
        "驳",
        -9.255127499480626
      ],
      [
        "屏幕",
        -9.25743712267343
      ],
      [
        "触",
        -9.257799753227548
      ],
      [
        "招",
        -9.26184268909509
      ],
      [
        "敢",
        -9.262607246120295
      ],
      [
        "拖",
        -9.26296628460074
      ],
      [
        "插",
        -9.262966284600752
      ],
      [
        "i",
        -9.264091143993323
      ],
      [
        "厅",
        -9.2651866929912
      ],
      [
        "穴",
        -9.26521727011944
      ],
      [
        "脉",
        -9.266344665835277
      ],
      [
        "阵",
        -9.269232373426547
      ],
      [
        "妮",
        -9.269734494119746
      ],
      [
        "(",
        -9.27200078890855
      ],
      [
        "挤",
        -9.27313586268831
      ],
      [
        "吓",
        -9.274272226324646
      ],
      [
        ")",
        -9.274272226324715
      ],
      [
        "输",
        -9.278830638282988
      ],
      [
        "横",
        -9.282263135557896
      ],
      [
        "私",
        -9.282263135557908
      ],
      [
        "仅仅",
        -9.28359941399236
      ],
      [
        "缓",
        -9.284372141838173
      ],
      [
        "丛",
        -9.284558030174452
      ],
      [
        "幕",
        -9.286779694022414
      ],
      [
        "素",
        -9.286858203447954
      ],
      [
        "钻",
        -9.28685820344803
      ],
      [
        "暂",
        -9.28916367971815
      ],
      [
        "掩",
        -9.289163679718238
      ],
      [
        "阿丽亚",
        -9.289164640064369
      ],
      [
        "鼻",
        -9.290318414129242
      ],
      [
        "悄",
        -9.292631890900847
      ],
      [
        "杂",
        -9.29358956138022
      ],
      [
        "昏",
        -9.293790639452425
      ],
      [
        "似",
        -9.295025927444566
      ],
      [
        "忍",
        -9.301508960377031
      ],
      [
        "扔",
        -9.30193969410533
      ],
      [
        "坡",
        -9.303109284748569
      ],
      [
        "盖娅",
        -9.303171745009895
      ],
      [
        "妈妈",
        -9.304296992520705
      ],
      [
        "借",
        -9.305452577878514
      ],
      [
        "栏",
        -9.305452577878564
      ],
      [
        "焦",
        -9.30780137493031
      ],
      [
        "搜",
        -9.307801374930314
      ],
      [
        "垂",
        -9.308977845518493
      ],
      [
        "珍",
        -9.3101557018201
      ],
      [
        "究竟",
        -9.311357742591854
      ],
      [
        "获",
        -9.313439684648277
      ],
      [
        "舞",
        -9.313697617744277
      ],
      [
        "恰",
        -9.313697617744277
      ],
      [
        " \t　　",
        -9.313697617744332
      ],
      [
        "谷",
        -9.31488104969689
      ],
      [
        "胸",
        -9.316065883820224
      ],
      [
        "拜",
        -9.31698738968193
      ],
      [
        "穆",
        -9.317252064652802
      ],
      [
        "粒",
        -9.317252123440563
      ],
      [
        "巴比康",
        -9.318440436441811
      ],
      [
        "监",
        -9.319171938035536
      ],
      [
        "李",
        -9.319628832538756
      ],
      [
        "某",
        -9.320215104181635
      ],
      [
        "威胁",
        -9.320829883530553
      ],
      [
        "习惯",
        -9.322085018537592
      ],
      [
        "友",
        -9.325590368352215
      ],
      [
        "录",
        -9.326489032301133
      ],
      [
        "哭",
        -9.32679304143435
      ],
      [
        "歌",
        -9.327992082201678
      ],
      [
        "亨",
        -9.32799208220177
      ],
      [
        "女孩",
        -9.331446919725895
      ],
      [
        "扫",
        -9.33400894679985
      ],
      [
        "钢",
        -9.334008946799871
      ],
      [
        "欢",
        -9.336249631046492
      ],
      [
        "逐渐",
        -9.336438073294342
      ],
      [
        "乌",
        -9.337636519864253
      ],
      [
        "骡",
        -9.338848641076417
      ],
      [
        "疯",
        -9.339906821543135
      ],
      [
        "滴",
        -9.343711871946777
      ],
      [
        "仰",
        -9.344931384141958
      ],
      [
        "陷",
        -9.34803345421307
      ],
      [
        "洁",
        -9.348598812543848
      ],
      [
        "偶",
        -9.349824359654647
      ],
      [
        "技",
        -9.350889292931564
      ],
      [
        "纵",
        -9.351051353519658
      ],
      [
        "续",
        -9.35214593320283
      ],
      [
        "缝",
        -9.352279854748154
      ],
      [
        "杯",
        -9.35350986704831
      ],
      [
        "犹豫",
        -9.353511071807517
      ],
      [
        "杆",
        -9.354741394141922
      ],
      [
        "凉",
        -9.355974439764577
      ],
      [
        "潜",
        -9.35720900766584
      ],
      [
        "颜",
        -9.358445101608922
      ],
      [
        "尤",
        -9.359682725351487
      ],
      [
        "绳",
        -9.359682725371332
      ],
      [
        "误",
        -9.36059151485188
      ],
      [
        "判",
        -9.361850287302158
      ],
      [
        "伴",
        -9.362567322610737
      ],
      [
        "熟",
        -9.368373285332028
      ],
      [
        "鲜",
        -9.36838924690893
      ],
      [
        "卖",
        -9.368389246908936
      ],
      [
        "增",
        -9.368985733497173
      ],
      [
        "男孩",
        -9.369528073289025
      ],
      [
        "敏",
        -9.373398649340762
      ],
      [
        "纷",
        -9.373398649340835
      ],
      [
        "跃",
        -9.373398649340878
      ],
      [
        "鼓",
        -9.373398649340881
      ],
      [
        "编",
        -9.373398649340894
      ],
      [
        "洗",
        -9.374654930747926
      ],
      [
        "o",
        -9.375912792383096
      ],
      [
        "掌",
        -9.37956548732732
      ],
      [
        "艺",
        -9.380960121040705
      ],
      [
        "扑",
        -9.380960121040715
      ],
      [
        "吞",
        -9.38222594382551
      ],
      [
        "磨",
        -9.384762406481439
      ],
      [
        "姐",
        -9.385374482568901
      ],
      [
        "困",
        -9.385675665192203
      ],
      [
        "欧",
        -9.385862719959341
      ],
      [
        "纯",
        -9.386033054511909
      ],
      [
        "嗯",
        -9.388579204493293
      ],
      [
        "腰",
        -9.38985471469736
      ],
      [
        "磁",
        -9.391131853905478
      ],
      [
        "柱",
        -9.39113185390555
      ],
      [
        "芒",
        -9.392410626284015
      ],
      [
        "壳",
        -9.392410626284057
      ],
      [
        "责",
        -9.393394553205859
      ],
      [
        "农",
        -9.393691036015085
      ],
      [
        "佩",
        -9.396097040579518
      ],
      [
        "控",
        -9.396976613981659
      ],
      [
        "擦",
        -9.397542131388404
      ],
      [
        "炸",
        -9.398786294855505
      ],
      [
        "荣",
        -9.39882913267542
      ],
      [
        "遍",
        -9.399058041309571
      ],
      [
        "针",
        -9.40011779246922
      ],
      [
        "欲",
        -9.400117792469228
      ],
      [
        "悬",
        -9.401399517500241
      ],
      [
        "司",
        -9.40221422051475
      ],
      [
        "晃",
        -9.403993765774787
      ],
      [
        "医",
        -9.404252875802817
      ],
      [
        "n",
        -9.410487294172604
      ],
      [
        "寂",
        -9.414403747708626
      ],
      [
        "侦",
        -9.414403747708636
      ],
      [
        "珠",
        -9.415712648232175
      ],
      [
        "—",
        -9.418172532622236
      ],
      [
        "惑",
        -9.418335600179695
      ],
      [
        "谓",
        -9.41833560017971
      ],
      [
        "厉",
        -9.418335600179724
      ],
      [
        "辛",
        -9.419649660626455
      ],
      [
        "拟",
        -9.420965450100187
      ],
      [
        "负",
        -9.424818415675674
      ],
      [
        "祖",
        -9.424923238333552
      ],
      [
        "扩",
        -9.427570492967494
      ],
      [
        "忧",
        -9.42889675291449
      ],
      [
        "鲸",
        -9.43155456139693
      ],
      [
        "戈",
        -9.432885980554495
      ],
      [
        "享",
        -9.43421945265299
      ],
      [
        "武",
        -9.436478036151073
      ],
      [
        "敌",
        -9.436499487819605
      ],
      [
        "羊",
        -9.436891464533314
      ],
      [
        "s",
        -9.439570635192762
      ],
      [
        "番",
        -9.439570635192787
      ],
      [
        "臂",
        -9.44005789127281
      ],
      [
        "盛",
        -9.442257003093435
      ],
      [
        "枝",
        -9.442257003093466
      ],
      [
        "勃",
        -9.449004665997798
      ],
      [
        "糟",
        -9.451716531651403
      ],
      [
        "屏",
        -9.452982521730302
      ],
      [
        "挑",
        -9.453075227303485
      ],
      [
        "馆",
        -9.454435669491069
      ],
      [
        "忠",
        -9.458528546040151
      ],
      [
        "瞪",
        -9.458528546040224
      ],
      [
        "暖",
        -9.461266398110023
      ],
      [
        "累",
        -9.461266398110055
      ],
      [
        "从来没有",
        -9.461894150311089
      ],
      [
        "趣",
        -9.46394502913847
      ],
      [
        "供",
        -9.464896632603221
      ],
      [
        "麻",
        -9.46531708761658
      ],
      [
        "泪",
        -9.46538728241452
      ],
      [
        "冻",
        -9.465387282414534
      ],
      [
        "胆",
        -9.465387282414538
      ],
      [
        "滩",
        -9.466764692882867
      ],
      [
        "牢",
        -9.46952521869729
      ],
      [
        "瞧",
        -9.469525218697317
      ],
      [
        "瓶",
        -9.470908344561815
      ],
      [
        "货",
        -9.472293386112998
      ],
      [
        "败",
        -9.473345054383856
      ],
      [
        "庞",
        -9.475069237553857
      ],
      [
        "审",
        -9.476460058138024
      ],
      [
        "t",
        -9.479247515937676
      ],
      [
        "眠",
        -9.482042765380923
      ],
      [
        "丧",
        -9.482042765380951
      ],
      [
        "桑",
        -9.484845850149142
      ],
      [
        "布莱恩特",
        -9.486250345148523
      ],
      [
        "协",
        -9.487656598609316
      ],
      [
        "蒸",
        -9.487656814292126
      ],
      [
        "袭",
        -9.487656814292158
      ],
      [
        "挡",
        -9.487656814292162
      ],
      [
        "奏",
        -9.487656814292164
      ],
      [
        "邓",
        -9.489065264996391
      ],
      [
        "访",
        -9.49047570223193
      ],
      [
        "扭",
        -9.49047570223193
      ],
      [
        "虑",
        -9.491610997938047
      ],
      [
        "呈",
        -9.491888131610455
      ],
      [
        "舅",
        -9.493302558767454
      ],
      [
        "膀",
        -9.494718989362365
      ],
      [
        "健",
        -9.494718989362376
      ],
      [
        "汽",
        -9.495575813916911
      ],
      [
        "识",
        -9.497058526563052
      ],
      [
        "貌",
        -9.498980358730815
      ],
      [
        "构",
        -9.499666552867055
      ],
      [
        "侵",
        -9.500404860155337
      ],
      [
        "望远镜",
        -9.500405590068205
      ],
      [
        "益",
        -9.50183139367886
      ],
      [
        "I",
        -9.506123245028334
      ],
      [
        "驱",
        -9.506123245028363
      ],
      [
        "腾",
        -9.507557965257927
      ],
      [
        "梅",
        -9.507557965257973
      ],
      [
        "丹尼尔",
        -9.507558919702259
      ],
      [
        "伏",
        -9.508994746867124
      ],
      [
        "叛",
        -9.508994746867138
      ],
      [
        "凯",
        -9.511874197341111
      ],
      [
        "霍",
        -9.51187451797822
      ],
      [
        "席",
        -9.51412013766415
      ],
      [
        "p",
        -9.51476260612639
      ],
      [
        "嘛",
        -9.514762606126453
      ],
      [
        "拥",
        -9.516029208864952
      ],
      [
        "晓",
        -9.516209784129298
      ],
      [
        "巴加内尔",
        -9.51620978950707
      ],
      [
        "赫伯特",
        -9.516210277645875
      ],
      [
        "雄",
        -9.517659059491615
      ],
      [
        "挖",
        -9.52056392667358
      ],
      [
        "伍",
        -9.520563926673589
      ],
      [
        "且",
        -9.521968822412871
      ],
      [
        "丢",
        -9.522019530749258
      ],
      [
        "晨",
        -9.524647390308946
      ],
      [
        "季",
        -9.524937110711402
      ],
      [
        "井",
        -9.524937110711406
      ],
      [
        "休",
        -9.526226276929362
      ],
      [
        "―",
        -9.530797932299869
      ],
      [
        "幅",
        -9.532268520535148
      ],
      [
        "埋",
        -9.533741274585187
      ],
      [
        "匆",
        -9.535216200838939
      ],
      [
        "省",
        -9.538172595654167
      ],
      [
        "l",
        -9.53817259565419
      ],
      [
        "符",
        -9.54113775666088
      ],
      [
        "哈特拉斯",
        -9.541137766425052
      ],
      [
        "繁",
        -9.54262364076181
      ],
      [
        "陪",
        -9.54262364076195
      ],
      [
        "恼",
        -9.544111736000021
      ],
      [
        "丘",
        -9.545602048965756
      ],
      [
        "稀",
        -9.545602048965769
      ],
      [
        "舷",
        -9.547094586279108
      ],
      [
        "傻",
        -9.547094586279178
      ],
      [
        "继",
        -9.5485025500708
      ],
      [
        "店",
        -9.55158561095292
      ],
      [
        "乡",
        -9.55308711245439
      ],
      [
        "蔽",
        -9.553087112454463
      ],
      [
        "播",
        -9.554590871852927
      ],
      [
        "本·拉多",
        -9.560628635766644
      ],
      [
        "陌",
        -9.562143776412576
      ],
      [
        "烦",
        -9.565102689569613
      ],
      [
        "户",
        -9.565180983934383
      ],
      [
        "递",
        -9.56518098393439
      ],
      [
        "末",
        -9.566703053949542
      ],
      [
        "宾",
        -9.568227444193504
      ],
      [
        "漂",
        -9.569434387083321
      ],
      [
        "铺",
        -9.569754161750751
      ],
      [
        "夏",
        -9.571283213738543
      ],
      [
        "治",
        -9.571675800176513
      ],
      [
        "丹",
        -9.572813569701827
      ],
      [
        "娃",
        -9.572814607306775
      ],
      [
        "攻",
        -9.57394209985447
      ],
      [
        "赏",
        -9.574348349637988
      ],
      [
        "巡",
        -9.575884447948233
      ],
      [
        "耀",
        -9.575884447948262
      ],
      [
        "胜",
        -9.57656071450459
      ],
      [
        "俩",
        -9.577422909486716
      ],
      [
        "燃",
        -9.578833928058124
      ],
      [
        "永",
        -9.581339866515542
      ],
      [
        "泊",
        -9.582052546466642
      ],
      [
        "络",
        -9.58515092167957
      ],
      [
        "踏",
        -9.585150921679638
      ],
      [
        "撒",
        -9.58670371671069
      ],
      [
        "挺",
        -9.586703716710755
      ],
      [
        "竟",
        -9.587584561710276
      ],
      [
        "厂",
        -9.588258926664029
      ],
      [
        "详",
        -9.588258926664064
      ],
      [
        "互",
        -9.589312092552847
      ],
      [
        "佛",
        -9.59134453406697
      ],
      [
        "箭",
        -9.591376621465374
      ],
      [
        "偷",
        -9.59293912146529
      ],
      [
        "亡",
        -9.593831315209794
      ],
      [
        "晶",
        -9.59450406669216
      ],
      [
        "轰",
        -9.59450406669217
      ],
      [
        "妇",
        -9.594504066692222
      ],
      [
        "诺第留斯号",
        -9.594504066692277
      ],
      [
        "博",
        -9.595769672097774
      ],
      [
        "睁",
        -9.59764132352405
      ],
      [
        "毕",
        -9.599145016606442
      ],
      [
        "慰",
        -9.600788453717719
      ],
      [
        "均",
        -9.602365740783945
      ],
      [
        "覆",
        -9.603945519614888
      ],
      [
        "旗",
        -9.603945519614939
      ],
      [
        "意味着",
        -9.603956900940863
      ],
      [
        "策",
        -9.607112584149755
      ],
      [
        "g",
        -9.607112584149771
      ],
      [
        "柯",
        -9.607112584149828
      ],
      [
        "习",
        -9.607953659463641
      ],
      [
        "纹",
        -9.608699885737064
      ],
      [
        "苍",
        -9.608699885737094
      ],
      [
        "讨",
        -9.609993649855038
      ],
      [
        "桅",
        -9.610288979001947
      ],
      [
        "玛蕾奴",
        -9.611882067904606
      ],
      [
        "始",
        -9.612117039022678
      ],
      [
        "染",
        -9.615074407965443
      ],
      [
        "遮",
        -9.615074407965444
      ],
      [
        "兴",
        -9.615336721041851
      ],
      [
        "茫",
        -9.616674407965412
      ],
      [
        "笨",
        -9.61667440796544
      ],
      [
        "心理史学",
        -9.616674460380453
      ],
      [
        "阻",
        -9.61806851736979
      ],
      [
        "煤",
        -9.61988210850453
      ],
      [
        "骑",
        -9.62310013150452
      ],
      [
        "融",
        -9.623100131504541
      ],
      [
        "脏",
        -9.623100131504579
      ],
      [
        "映",
        -9.624713034730272
      ],
      [
        "弃",
        -9.627331474636092
      ],
      [
        "措",
        -9.627946666592958
      ],
      [
        "饰",
        -9.62794666659299
      ],
      [
        "历",
        -9.628879528008941
      ],
      [
        "忽",
        -9.628990997418368
      ],
      [
        "吐",
        -9.629567412135913
      ],
      [
        "敦",
        -9.629567412135952
      ],
      [
        "弟",
        -9.631159667694138
      ],
      [
        "瑟",
        -9.631190788759302
      ],
      [
        "敲",
        -9.631190788759302
      ],
      [
        "筏",
        -9.632816805019488
      ],
      [
        "废",
        -9.63607679088474
      ],
      [
        "夺",
        -9.636076790884896
      ],
      [
        "值",
        -9.637046289816876
      ],
      [
        "辨",
        -9.63771077781297
      ],
      [
        "戈弗雷",
        -9.637710947956151
      ],
      [
        "泽",
        -9.639347439024144
      ],
      [
        "艾尔通",
        -9.6409890435197
      ],
      [
        "齿",
        -9.64592100271128
      ],
      [
        "练",
        -9.647545926085934
      ],
      [
        "乏",
        -9.647571167727762
      ],
      [
        "痕",
        -9.647571167727794
      ],
      [
        "惨",
        -9.652538064221535
      ],
      [
        "渴",
        -9.652538064221545
      ],
      [
        "尚",
        -9.654199193789697
      ],
      [
        "饿",
        -9.659199203048974
      ],
      [
        "典",
        -9.660871443851596
      ],
      [
        "额",
        -9.66254648572766
      ],
      [
        "炉",
        -9.66254648572768
      ],
      [
        "吊",
        -9.66254648572773
      ],
      [
        "艰",
        -9.664224338076657
      ],
      [
        "课",
        -9.670964041859083
      ],
      [
        "慈",
        -9.670964041859119
      ],
      [
        "湿",
        -9.670964041859124
      ],
      [
        "夹",
        -9.670964041859133
      ],
      [
        "鸣",
        -9.67265608923639
      ],
      [
        "廊",
        -9.676048797359929
      ],
      [
        "迎",
        -9.677661202941323
      ],
      [
        "伙",
        -9.678460520258128
      ],
      [
        "持",
        -9.6799477497641
      ],
      [
        "凌",
        -9.682868941495748
      ],
      [
        "莎",
        -9.684581270262939
      ],
      [
        "凭",
        -9.684581270262969
      ],
      [
        "喘",
        -9.684581270262978
      ],
      [
        "搭",
        -9.686296536129209
      ],
      [
        "净",
        -9.688014749187575
      ],
      [
        "躯",
        -9.688014749187577
      ],
      [
        "御",
        -9.688014749187587
      ],
      [
        "宇",
        -9.689729144506932
      ],
      [
        "诗",
        -9.689735919583391
      ],
      [
        "牲",
        -9.69318717323125
      ],
      [
        "酷",
        -9.694917277037401
      ],
      [
        "涉",
        -9.696650379290476
      ],
      [
        "岗",
        -9.696650379290496
      ],
      [
        "唤",
        -9.696650379290524
      ],
      [
        "昂梯菲尔",
        -9.69665037932058
      ],
      [
        "昂",
        -9.698386490371465
      ],
      [
        "棵",
        -9.70186778111512
      ],
      [
        "逼",
        -9.703612981813205
      ],
      [
        "袖",
        -9.70361298181324
      ],
      [
        "辩",
        -9.703612981813244
      ],
      [
        "太平洋",
        -9.703614140383877
      ],
      [
        "F",
        -9.705361233561346
      ],
      [
        "惜",
        -9.705361233561474
      ],
      [
        "宿",
        -9.707112547046604
      ],
      [
        "加利亚",
        -9.707117535006812
      ],
      [
        "幽",
        -9.708866933011514
      ],
      [
        "咬",
        -9.7106244022558
      ],
      [
        "截",
        -9.712384965636002
      ],
      [
        "贴",
        -9.712384965636067
      ],
      [
        "耗",
        -9.714148634066397
      ],
      [
        "舍",
        -9.71591518151285
      ],
      [
        "史帝加",
        -9.715915485082638
      ],
      [
        "伟",
        -9.717440535542313
      ],
      [
        "罢",
        -9.71945837966852
      ],
      [
        "赖",
        -9.719458379668545
      ],
      [
        "属",
        -9.719753832788285
      ],
      [
        "锁",
        -9.721234578602832
      ],
      [
        "史密斯",
        -9.721236180635128
      ],
      [
        "椅",
        -9.72203714199436
      ],
      [
        "宏",
        -9.723013938033464
      ],
      [
        "粉",
        -9.724796469227705
      ],
      [
        "邦",
        -9.72479646922773
      ],
      [
        "拔",
        -9.730163206974437
      ],
      [
        "嘉迪娅",
        -9.730163207870824
      ],
      [
        "豹",
        -9.731958539110824
      ],
      [
        "逊",
        -9.735558889642489
      ],
      [
        "琴",
        -9.735558902063772
      ],
      [
        "执政官",
        -9.735558971755925
      ],
      [
        "尺",
        -9.737206029302035
      ],
      [
        "鲍",
        -9.739172274479388
      ],
      [
        "烂",
        -9.739172274479412
      ],
      [
        "衰",
        -9.740983868682278
      ],
      [
        "恐",
        -9.742427638591717
      ],
      [
        "笼",
        -9.744616932533141
      ],
      [
        "慌",
        -9.746438426157885
      ],
      [
        "伊利亚",
        -9.74644035728873
      ],
      [
        "补",
        -9.748157777044513
      ],
      [
        "吼",
        -9.74826324367616
      ],
      [
        "爷",
        -9.750091397241047
      ],
      [
        "狱",
        -9.750091397241086
      ],
      [
        "墓",
        -9.753757761457853
      ],
      [
        "愈",
        -9.75375776145788
      ],
      [
        "肢",
        -9.753757761457889
      ],
      [
        "缘",
        -9.754938569787328
      ],
      [
        "荷",
        -9.755595874454245
      ],
      [
        "胶",
        -9.755595996751968
      ],
      [
        "汇",
        -9.757437617378118
      ],
      [
        "糊",
        -9.759027594560035
      ],
      [
        "勇",
        -9.759187683431348
      ],
      [
        "狠",
        -9.759282635828296
      ],
      [
        "械",
        -9.762982916515625
      ],
      [
        "邻",
        -9.76298291651564
      ],
      [
        "/",
        -9.766696940144726
      ],
      [
        "赛勒斯·史密斯",
        -9.772293968057962
      ],
      [
        "穷",
        -9.774166627233964
      ],
      [
        "萨米·斯金",
        -9.774166627235845
      ],
      [
        "醉",
        -9.776042799841804
      ],
      [
        "抚",
        -9.77604279984186
      ],
      [
        "创",
        -9.777519806649467
      ],
      [
        "竭",
        -9.77792249908995
      ],
      [
        "骗",
        -9.77792249908999
      ],
      [
        "译",
        -9.77792249909001
      ],
      [
        "逐",
        -9.78167347674365
      ],
      [
        "菜",
        -9.785476829276352
      ],
      [
        "篷",
        -9.785476829276394
      ],
      [
        "怨",
        -9.789275503167584
      ],
      [
        "c",
        -9.789275503167584
      ],
      [
        "泥",
        -9.79308866201889
      ],
      [
        "牧",
        -9.795000707907981
      ],
      [
        "尉",
        -9.79829056044166
      ],
      [
        "黎",
        -9.798835802516843
      ],
      [
        "讯",
        -9.800268987134398
      ],
      [
        "奈",
        -9.800758879426173
      ],
      [
        "傲",
        -9.800758879439883
      ],
      [
        "样板岛",
        -9.800764625477559
      ],
      [
        "茨",
        -9.802685661692593
      ],
      [
        "办公室",
        -9.802685998909666
      ],
      [
        "帐",
        -9.804616163644045
      ],
      [
        "匹",
        -9.80655039962081
      ],
      [
        "阅",
        -9.808488384116885
      ],
      [
        "浑",
        -9.810430131689795
      ],
      [
        "概",
        -9.81053932801997
      ],
      [
        "G",
        -9.814324974720169
      ],
      [
        "描",
        -9.816161727870943
      ],
      [
        "频",
        -9.816278099720403
      ],
      [
        "焰",
        -9.81823504688279
      ],
      [
        "歉",
        -9.818235046882808
      ],
      [
        "莉",
        -9.82019583119652
      ],
      [
        "坚迪柏",
        -9.820195846860623
      ],
      [
        "委",
        -9.822158969395218
      ],
      [
        "翼",
        -9.82216046773592
      ],
      [
        "童",
        -9.824128971675725
      ],
      [
        "u",
        -9.826101358263486
      ],
      [
        "牌",
        -9.826101358263552
      ],
      [
        "唐纳甘",
        -9.826101374452822
      ],
      [
        "尼摩船长",
        -9.826101880493667
      ],
      [
        "噢",
        -9.828077642848548
      ],
      [
        "筒",
        -9.828077642848566
      ],
      [
        "舒",
        -9.829650577310499
      ],
      [
        "奴",
        -9.83204196740336
      ],
      [
        "摄",
        -9.83204196785248
      ],
      [
        "拼",
        -9.83403003942301
      ],
      [
        "鼠",
        -9.834030039423041
      ],
      [
        "促",
        -9.836022071295538
      ],
      [
        "甘",
        -9.838017994896312
      ],
      [
        "矮",
        -9.838018079279557
      ],
      [
        "厄",
        -9.840018079279606
      ],
      [
        "氧",
        -9.842022087295565
      ],
      [
        "葛",
        -9.84202208729561
      ],
      [
        "济",
        -9.844030119424007
      ],
      [
        "瘦",
        -9.844030119424149
      ],
      [
        "戏",
        -9.845803698372364
      ],
      [
        "仇",
        -9.84604219185866
      ],
      [
        "帽",
        -9.848058320890999
      ],
      [
        "浅",
        -9.850078522911119
      ],
      [
        "耶",
        -9.850078522911168
      ],
      [
        "熊",
        -9.852102814409102
      ],
      [
        "詹",
        -9.85413113043651
      ],
      [
        "灌",
        -9.854131211975051
      ],
      [
        "畜",
        -9.854131211975064
      ],
      [
        "颇",
        -9.856163732300221
      ],
      [
        "唱",
        -9.862286198279568
      ],
      [
        "予",
        -9.862286198279623
      ],
      [
        "肌",
        -9.862286198279719
      ],
      [
        "哥利纳帆",
        -9.862286198676372
      ],
      [
        "序",
        -9.864115324915229
      ],
      [
        "郎",
        -9.864335378607466
      ],
      [
        "抢",
        -9.86433537860754
      ],
      [
        "股",
        -9.865899784352756
      ],
      [
        "检",
        -9.866229055872317
      ],
      [
        "评",
        -9.866388766697868
      ],
      [
        "m",
        -9.868446379866562
      ],
      [
        "阳",
        -9.868471832591137
      ],
      [
        "魂",
        -9.87050823553669
      ],
      [
        "崩",
        -9.870508235536695
      ],
      [
        "须",
        -9.872405708266147
      ],
      [
        "挣",
        -9.872574351239159
      ],
      [
        "窄",
        -9.87257435123916
      ],
      [
        "扇",
        -9.872574351239187
      ],
      [
        "池",
        -9.874644744613885
      ],
      [
        "闷",
        -9.874644744613924
      ],
      [
        "陈",
        -9.874644744613969
      ],
      [
        "D",
        -9.8787984354896
      ],
      [
        "桶",
        -9.87879843548965
      ],
      [
        "扯",
        -9.88088176882293
      ],
      [
        "狭",
        -9.882969451495152
      ],
      [
        "贾",
        -9.882969451495157
      ],
      [
        "C",
        -9.885061501704344
      ],
      [
        "赤",
        -9.88506150170442
      ],
      [
        "骂",
        -9.887157937763059
      ],
      [
        "廉",
        -9.88715793776308
      ],
      [
        "诸",
        -9.889258778099217
      ],
      [
        "掠",
        -9.89136404125713
      ],
      [
        "姿",
        -9.893473745898438
      ],
      [
        "迁",
        -9.89347374589846
      ],
      [
        "剑",
        -9.893473745898492
      ],
      [
        "仆",
        -9.895587910803364
      ],
      [
        "介",
        -9.89770372485335
      ],
      [
        "赢",
        -9.899829697121598
      ],
      [
        "串",
        -9.899829697121637
      ],
      [
        "召",
        -9.899829697121685
      ],
      [
        "伐",
        -9.906226293089006
      ],
      [
        "叉",
        -9.908367632618015
      ],
      [
        "d",
        -9.908367632618022
      ],
      [
        "嘲",
        -9.908367632618047
      ],
      [
        "跨",
        -9.90836763261806
      ],
      [
        "彗",
        -9.908367632618072
      ],
      [
        "扶",
        -9.910513555364833
      ],
      [
        "纽",
        -9.919143594791336
      ],
      [
        "脆",
        -9.921312792188335
      ],
      [
        "江",
        -9.925665354469285
      ],
      [
        "赌",
        -9.927848760582789
      ],
      [
        "辈",
        -9.927848760582794
      ],
      [
        "询",
        -9.927848760582807
      ],
      [
        "谎",
        -9.927848760582823
      ],
      [
        "遥",
        -9.928481351195718
      ],
      [
        "朱埃勒",
        -9.930036968277117
      ],
      [
        "绪",
        -9.931403112935097
      ],
      [
        "佳",
        -9.93222992684637
      ],
      [
        "搬",
        -9.932229926846372
      ],
      [
        "喂",
        -9.932229926846396
      ],
      [
        "吉斯卡特",
        -9.93222993137682
      ],
      [
        "逝",
        -9.934427729044156
      ],
      [
        "签",
        -9.936630372215976
      ],
      [
        "俗",
        -9.93663037221598
      ],
      [
        "疏",
        -9.936630372215983
      ],
      [
        "聊",
        -9.936630372216008
      ],
      [
        "约翰逊",
        -9.936630387159216
      ],
      [
        "蛮",
        -9.938837877734748
      ],
      [
        "坑",
        -9.94105026711526
      ],
      [
        "闹",
        -9.943267562015492
      ],
      [
        "君",
        -9.943267562015503
      ],
      [
        "郁",
        -9.945489784237694
      ],
      [
        "捷",
        -9.947716955729838
      ],
      [
        "穹",
        -9.947716955729911
      ],
      [
        "循",
        -9.947716955729943
      ],
      [
        "傅",
        -9.947716955729948
      ],
      [
        "沟",
        -9.947716955729957
      ],
      [
        "撑",
        -9.952186235052375
      ],
      [
        "刮",
        -9.952186235052402
      ],
      [
        "姓",
        -9.95442838751877
      ],
      [
        "援",
        -9.956675578529994
      ],
      [
        ">",
        -9.956675578530032
      ],
      [
        "拾",
        -9.956675578530048
      ],
      [
        "肥",
        -9.958927830782201
      ],
      [
        "桥",
        -9.963447610564245
      ],
      [
        "龄",
        -9.965715184260329
      ],
      [
        "捉",
        -9.965715184260446
      ],
      [
        "瓜",
        -9.96798791153314
      ],
      [
        "竞",
        -9.967987911533145
      ],
      [
        "膛",
        -9.96798791153315
      ],
      [
        "虎",
        -9.967987911533159
      ],
      [
        "奶",
        -9.972548920883973
      ],
      [
        "<",
        -9.972548920884037
      ],
      [
        "肚",
        -9.97483725040346
      ],
      [
        "本·佐夫",
        -9.974837250429584
      ],
      [
        "辞",
        -9.97713082838511
      ],
      [
        "粮",
        -9.97713082838525
      ],
      [
        "愚",
        -9.979405387161014
      ],
      [
        "浸",
        -9.979429678959843
      ],
      [
        "兰·盖伊船长",
        -9.979429678959946
      ],
      [
        "悦",
        -9.981733826425295
      ],
      [
        "哲",
        -9.984043295247421
      ],
      [
        "*",
        -9.984043295247545
      ],
      [
        "附",
        -9.986014321478379
      ],
      [
        "契",
        -9.986358108213995
      ],
      [
        "盒",
        -9.988678295677017
      ],
      [
        "鸡",
        -9.988678295677095
      ],
      [
        "谅",
        -9.988678295677111
      ],
      [
        "票",
        -9.991003877072448
      ],
      [
        "闲",
        -9.991003877072462
      ],
      [
        "哦",
        -9.991165500922241
      ],
      [
        "障",
        -9.995637093814295
      ],
      [
        "哀",
        -9.995671328001537
      ],
      [
        "企",
        -9.995671328001567
      ],
      [
        "锐",
        -9.995671328001592
      ],
      [
        "爵",
        -9.997094504613733
      ],
      [
        "犹",
        -9.99801095326535
      ],
      [
        "崔",
        -9.998013081452907
      ],
      [
        "盐",
        -9.998013248376196
      ],
      [
        "献",
        -9.998013248376296
      ],
      [
        "植",
        -9.9992469366872
      ],
      [
        "寸",
        -10.000360666216597
      ],
      [
        "祝",
        -10.00036066621663
      ],
      [
        "淹",
        -10.000360666216654
      ],
      [
        "戒",
        -10.000360666216665
      ],
      [
        "誉",
        -10.000360666216697
      ],
      [
        "饮",
        -10.005072097959165
      ],
      [
        "篇",
        -10.005072097959173
      ],
      [
        "汗",
        -10.00507209795919
      ],
      [
        "酸",
        -10.007436164152963
      ],
      [
        "朱",
        -10.00980580652918
      ],
      [
        "楚",
        -10.011806183271972
      ],
      [
        "斑",
        -10.012181129311555
      ],
      [
        "豪",
        -10.01218112931159
      ],
      [
        "蛇",
        -10.01456208169241
      ],
      [
        "锚",
        -10.01456208169256
      ],
      [
        "违",
        -10.016948716537387
      ],
      [
        "咒",
        -10.016948716537396
      ],
      [
        "诱",
        -10.01934106103503
      ],
      [
        "抖",
        -10.021694667069202
      ],
      [
        "颤",
        -10.021694667069223
      ],
      [
        "坠",
        -10.02414298872356
      ],
      [
        "涨",
        -10.024142988723696
      ],
      [
        "球状闪电",
        -10.024142988863568
      ],
      [
        "辉",
        -10.026552627277809
      ],
      [
        "储",
        -10.026552627277864
      ],
      [
        "狼",
        -10.028968086215077
      ],
      [
        "秀",
        -10.031389393720856
      ],
      [
        "弦",
        -10.033816578187096
      ],
      [
        "婉",
        -10.033816578187137
      ],
      [
        "吻",
        -10.036212291317248
      ],
      [
        "吨",
        -10.038688692601681
      ],
      [
        "殿",
        -10.038688692601696
      ],
      [
        "菲利克斯",
        -10.03868869833046
      ],
      [
        "另",
        -10.040622796314551
      ],
      [
        "愤",
        -10.041001991829384
      ],
      [
        "螺",
        -10.041133680376756
      ],
      [
        "拳",
        -10.041133680376756
      ],
      [
        "铭",
        -10.041133680376767
      ],
      [
        "遵",
        -10.041133680376781
      ],
      [
        "斯第尔格",
        -10.043584667869052
      ],
      [
        "裹",
        -10.046041663225868
      ],
      [
        "溜",
        -10.046041663225886
      ],
      [
        "汤",
        -10.04604166322593
      ],
      [
        "僵",
        -10.046041663225935
      ],
      [
        "撤",
        -10.048504717413067
      ],
      [
        "袍",
        -10.048504717413088
      ],
      [
        "铜",
        -10.050973853215538
      ],
      [
        "B",
        -10.0509738532157
      ],
      [
        "畏",
        -10.053449100740288
      ],
      [
        "惟",
        -10.055930490318456
      ],
      [
        "爆",
        -10.058741341482055
      ],
      [
        "督",
        -10.063033812709225
      ],
      [
        "盗",
        -10.06341181809358
      ],
      [
        "振",
        -10.06591808375771
      ],
      [
        "虽",
        -10.067634900307517
      ],
      [
        "晕",
        -10.068430646571809
      ],
      [
        "逻",
        -10.06843064657182
      ],
      [
        "庭",
        -10.069103154735643
      ],
      [
        "堪",
        -10.073474790784713
      ],
      [
        "劝",
        -10.07347479078473
      ],
      [
        "颠",
        -10.076006436354344
      ],
      [
        "礁",
        -10.078544507420293
      ],
      [
        "熄",
        -10.078544507420315
      ],
      [
        "堵",
        -10.078544507420336
      ],
      [
        "勉",
        -10.081089036682414
      ],
      [
        "漏",
        -10.081089036682428
      ],
      [
        "N",
        -10.081089036682446
      ],
      [
        "悔",
        -10.083640057090571
      ],
      [
        "链",
        -10.08876170441169
      ],
      [
        "贯",
        -10.088761704411706
      ],
      [
        "漠",
        -10.090916358721756
      ],
      [
        "倦",
        -10.091332398499132
      ],
      [
        "翰",
        -10.09390970059838
      ],
      [
        "墨",
        -10.093909718086724
      ],
      [
        "扣",
        -10.093909718086735
      ],
      [
        "牵",
        -10.093909718086746
      ],
      [
        "哑",
        -10.093909718086795
      ],
      [
        "抑",
        -10.096493697414914
      ],
      [
        "马诺埃尔",
        -10.096493698627302
      ],
      [
        "羞",
        -10.09908437099007
      ],
      [
        "讽",
        -10.101681773587472
      ],
      [
        "疾",
        -10.104285940254066
      ],
      [
        "泄",
        -10.104285940254082
      ],
      [
        "纤",
        -10.104285940254114
      ],
      [
        "春",
        -10.104285940254115
      ],
      [
        "渡",
        -10.104285940254128
      ],
      [
        "嗓",
        -10.109514707358645
      ],
      [
        "奉",
        -10.109514707358665
      ],
      [
        "熔",
        -10.112139379274547
      ],
      [
        "h",
        -10.11213937927458
      ],
      [
        "M",
        -10.11213937927473
      ],
      [
        "搁",
        -10.114770958222012
      ],
      [
        "京",
        -10.116982819432998
      ],
      [
        "辑",
        -10.119415974305024
      ],
      [
        "释",
        -10.119545513082693
      ],
      [
        "涂",
        -10.122707503188934
      ],
      [
        "俯",
        -10.125367077656927
      ],
      [
        "珊",
        -10.125367077656948
      ],
      [
        "籍",
        -10.125367077656978
      ],
      [
        "耸",
        -10.128033734842308
      ],
      [
        "宜",
        -10.128033744323645
      ],
      [
        "拯",
        -10.128033744323668
      ],
      [
        "跌",
        -10.130707541115019
      ],
      [
        "脖",
        -10.130707541115068
      ],
      [
        "阿拉吉斯",
        -10.133388511925302
      ],
      [
        "S",
        -10.136076678305518
      ],
      [
        "挪",
        -10.141474798798011
      ],
      [
        "孙",
        -10.141474798798015
      ],
      [
        "渔",
        -10.146902217202628
      ],
      [
        "塑",
        -10.149627012842984
      ],
      [
        "割",
        -10.14962701284299
      ],
      [
        "妈",
        -10.152281040543262
      ],
      [
        "嚷",
        -10.155098979307517
      ],
      [
        "彬",
        -10.155098979307546
      ],
      [
        "刑",
        -10.157846232054741
      ],
      [
        "R",
        -10.157846232054776
      ],
      [
        "鞋",
        -10.157846232054794
      ],
      [
        "窃",
        -10.160601052991371
      ],
      [
        "漆",
        -10.160601052991396
      ],
      [
        "撕",
        -10.16060105299141
      ],
      [
        "逆",
        -10.163363483930661
      ],
      [
        "印第安人",
        -10.163363486021852
      ],
      [
        "欺",
        -10.16613356703299
      ],
      [
        "胎",
        -10.166133567033043
      ],
      [
        "奖",
        -10.166133567033128
      ],
      [
        "德拉戈什",
        -10.166133567089915
      ],
      [
        "洪",
        -10.168911344810866
      ],
      [
        "膜",
        -10.168911344810923
      ],
      [
        "躺",
        -10.170630168065465
      ],
      [
        "吵",
        -10.174490156220605
      ],
      [
        "痴",
        -10.182917166841293
      ],
      [
        "糕",
        -10.182917166841309
      ],
      [
        "篮",
        -10.18857488678818
      ],
      [
        "俘",
        -10.191415795879056
      ],
      [
        "舌",
        -10.191415795879074
      ],
      [
        "牺",
        -10.191415795879088
      ],
      [
        "哼",
        -10.19141579587911
      ],
      [
        "浴",
        -10.194264798728057
      ],
      [
        "诞",
        -10.197121941585191
      ],
      [
        "芬",
        -10.197121941585232
      ],
      [
        "歇",
        -10.199986202880808
      ],
      [
        "峭",
        -10.199987271098031
      ],
      [
        "T",
        -10.199987271098104
      ],
      [
        "拆",
        -10.199987271098145
      ],
      [
        "......",
        -10.20286083431646
      ],
      [
        "钮",
        -10.205742678696936
      ],
      [
        "版",
        -10.205742678696968
      ],
      [
        "浆",
        -10.208632852107268
      ],
      [
        "庆",
        -10.2086328521073
      ],
      [
        "盆",
        -10.208632852107344
      ],
      [
        "爪",
        -10.21153140283193
      ],
      [
        "咖",
        -10.211531402831941
      ],
      [
        "啡",
        -10.211531402831941
      ],
      [
        "唉",
        -10.211531402831955
      ],
      [
        "嗡",
        -10.214438379576091
      ],
      [
        "躁",
        -10.214438379576107
      ],
      [
        "返",
        -10.215054015265386
      ],
      [
        "孩",
        -10.216980038932604
      ],
      [
        "惯",
        -10.217173143267747
      ],
      [
        "卧",
        -10.217353831471147
      ],
      [
        "疫",
        -10.217353831471154
      ],
      [
        "枯",
        -10.217353831471186
      ],
      [
        "毯",
        -10.22027780807927
      ],
      [
        "摔",
        -10.220277808079285
      ],
      [
        "桩",
        -10.22027780807932
      ],
      [
        "宅",
        -10.223210359399012
      ],
      [
        "罚",
        -10.223210359399022
      ],
      [
        "茵席格那",
        -10.223210359437156
      ],
      [
        "州",
        -10.226151535869569
      ],
      [
        "脊",
        -10.226151535869587
      ],
      [
        "胀",
        -10.226151535869601
      ],
      [
        "勤",
        -10.22615153586962
      ],
      [
        "刘",
        -10.226151535869716
      ],
      [
        "丑",
        -10.229101388376947
      ],
      [
        "锥",
        -10.229101388376973
      ],
      [
        "培",
        -10.232059968258678
      ],
      [
        "恒",
        -10.234069304611705
      ],
      [
        "胞",
        -10.234721314538056
      ],
      [
        "唐",
        -10.238003493344602
      ],
      [
        "邪",
        -10.238003517785222
      ],
      [
        "扮",
        -10.238003517785266
      ],
      [
        "嘶",
        -10.238003517785298
      ],
      [
        "骚",
        -10.238003517785302
      ],
      [
        "杨",
        -10.238003517785376
      ],
      [
        "朵",
        -10.240831127330473
      ],
      [
        "什",
        -10.240876217809026
      ],
      [
        "崇",
        -10.240988592412045
      ],
      [
        "誓",
        -10.24098859241207
      ],
      [
        "凹",
        -10.240988592412101
      ],
      [
        "溃",
        -10.240988592412151
      ],
      [
        "E",
        -10.243982604388101
      ],
      [
        "弥",
        -10.24398260438814
      ],
      [
        "拦",
        -10.243982604388174
      ],
      [
        "颊",
        -10.24398260438818
      ],
      [
        "锋",
        -10.243982604388194
      ],
      [
        "隙",
        -10.246985607391139
      ],
      [
        "帝",
        -10.24786196639996
      ],
      [
        "泛",
        -10.249997655583961
      ],
      [
        "眨",
        -10.249997655583968
      ],
      [
        "挨",
        -10.249997655583986
      ],
      [
        "郑",
        -10.249997655583998
      ],
      [
        "俄",
        -10.253017778721896
      ],
      [
        "夸",
        -10.253018803620174
      ],
      [
        "雕",
        -10.253018803620188
      ],
      [
        "淋",
        -10.253018803620236
      ],
      [
        "掏",
        -10.253018803620236
      ],
      [
        "织",
        -10.255903259574016
      ],
      [
        "疼",
        -10.256049106650508
      ],
      [
        "膝",
        -10.256049106650515
      ],
      [
        "劫",
        -10.259088620328296
      ],
      [
        "腹",
        -10.259088620328313
      ],
      [
        "啸",
        -10.259088620328315
      ],
      [
        "驾",
        -10.26198775627224
      ],
      [
        "葡",
        -10.262137400816087
      ],
      [
        "寄",
        -10.265195504791611
      ],
      [
        "萄",
        -10.2682629894542
      ],
      [
        "甫",
        -10.268262989454287
      ],
      [
        "P",
        -10.271339912530893
      ],
      [
        "驼",
        -10.271339912531118
      ],
      [
        "凑",
        -10.271339912531161
      ],
      [
        "菌",
        -10.274426332284179
      ],
      [
        "呵",
        -10.274426332284214
      ],
      [
        "弧",
        -10.274426332284218
      ],
      [
        "窝",
        -10.27442633228423
      ],
      [
        "卑",
        -10.274426332284289
      ],
      [
        "销",
        -10.277522307516389
      ],
      [
        "蜥",
        -10.277522307516467
      ],
      [
        "叙",
        -10.277522307516481
      ],
      [
        "盟",
        -10.277522307516517
      ],
      [
        "缠",
        -10.280627897578556
      ],
      [
        "晴",
        -10.280627897578576
      ],
      [
        "碍",
        -10.283697499267742
      ],
      [
        "辱",
        -10.286868162376027
      ],
      [
        "臣",
        -10.286868162376065
      ],
      [
        "疗",
        -10.286868162376077
      ],
      [
        "症",
        -10.290002958614274
      ],
      [
        "廷",
        -10.29000295861431
      ],
      [
        "柴",
        -10.290002958614313
      ],
      [
        "攀",
        -10.290002958614332
      ],
      [
        "叠",
        -10.290002958614382
      ],
      [
        "昆",
        -10.293147612702338
      ],
      [
        "泉",
        -10.293147612702342
      ],
      [
        "润",
        -10.293147612702391
      ],
      [
        "蚁",
        -10.296300318907505
      ],
      [
        "帅",
        -10.29630218683483
      ],
      [
        "勾",
        -10.296302186834861
      ],
      [
        "贫",
        -10.299466743796867
      ],
      [
        "衷",
        -10.299466743796868
      ],
      [
        "轴",
        -10.299466743796952
      ],
      [
        "钩",
        -10.302641346971452
      ],
      [
        "厨",
        -10.302641346971482
      ],
      [
        "丹莫茨尔",
        -10.302641347006098
      ],
      [
        "灾",
        -10.308660363359074
      ],
      [
        "腊",
        -10.309020948526115
      ],
      [
        "绵",
        -10.309020948526179
      ],
      [
        ";",
        -10.309020948526346
      ],
      [
        "饱",
        -10.312226076731331
      ],
      [
        "喉",
        -10.312226076731342
      ],
      [
        "凯罗特修女",
        -10.312226076731424
      ],
      [
        "囚",
        -10.315441510814921
      ],
      [
        "法斯托尔弗",
        -10.315441510818617
      ],
      [
        "钉",
        -10.31866731726662
      ],
      [
        "仁",
        -10.321903563221277
      ],
      [
        "碑",
        -10.325150316467916
      ],
      [
        "渊",
        -10.325150316467994
      ],
      [
        "塞尔瓦达克",
        -10.32832129851845
      ],
      [
        "贮",
        -10.328407645458142
      ],
      [
        "耽",
        -10.328407645458217
      ],
      [
        "枚",
        -10.32840764545827
      ],
      [
        "兆",
        -10.328407645458272
      ],
      [
        "奋",
        -10.331608862732033
      ],
      [
        "°",
        -10.33167561931436
      ],
      [
        "咕",
        -10.331675619314431
      ],
      [
        "胖",
        -10.331675619314478
      ],
      [
        "乳",
        -10.331675619314481
      ],
      [
        "危",
        -10.334172600224665
      ],
      [
        "斥",
        -10.33495430783901
      ],
      [
        "韦",
        -10.33824378149971
      ],
      [
        "幼",
        -10.338243781523232
      ],
      [
        "役",
        -10.344855369834349
      ],
      [
        "咽",
        -10.344855369834356
      ],
      [
        "瞥",
        -10.344855369834406
      ],
      [
        "阿瑟·皮姆",
        -10.344855369834457
      ],
      [
        "轨",
        -10.347767403888156
      ],
      [
        "仿",
        -10.348109237653464
      ],
      [
        "氢",
        -10.348177628970586
      ],
      [
        "吗",
        -10.350037822433075
      ],
      [
        "顽",
        -10.351510962303873
      ],
      [
        "紫",
        -10.351510962303902
      ],
      [
        "秋",
        -10.351510962303932
      ],
      [
        "L",
        -10.351510962303948
      ],
      [
        "瞄",
        -10.351510962303989
      ],
      [
        "污",
        -10.351510962304005
      ],
      [
        "范",
        -10.35467440868572
      ],
      [
        "柜",
        -10.358211148607221
      ],
      [
        "亏",
        -10.358211148607232
      ],
      [
        "惩",
        -10.358211148607248
      ],
      [
        "钓",
        -10.361578151974182
      ],
      [
        "竖",
        -10.361578151974218
      ],
      [
        "０",
        -10.364956530352579
      ],
      [
        "塌",
        -10.364956530352618
      ],
      [
        "邀",
        -10.368346360861116
      ],
      [
        "催",
        -10.368346360861118
      ],
      [
        "磅",
        -10.368346360861128
      ],
      [
        "屈",
        -10.368346360861132
      ],
      [
        "葬",
        -10.368346360861132
      ],
      [
        "棒",
        -10.371747721405312
      ],
      [
        "款",
        -10.371747721405317
      ],
      [
        "妥",
        -10.371747721405338
      ],
      [
        "盔",
        -10.375160690688553
      ],
      [
        "伞",
        -10.375160690688631
      ],
      [
        "棕",
        -10.375160690688642
      ],
      [
        "厦",
        -10.37516069068865
      ],
      [
        "忌",
        -10.37516069068869
      ],
      [
        "兄",
        -10.37851963752042
      ],
      [
        "革",
        -10.378585348222817
      ],
      [
        "遣",
        -10.37858534822286
      ],
      [
        "堤",
        -10.382021774339696
      ],
      [
        "氛",
        -10.382021774339702
      ],
      [
        "摘",
        -10.38547005020166
      ],
      [
        "舵",
        -10.385470050201771
      ],
      [
        "揭",
        -10.388930257814199
      ],
      [
        "绘",
        -10.388930257814334
      ],
      [
        "抹",
        -10.392402480036433
      ],
      [
        "妲",
        -10.392402480036452
      ],
      [
        "喀",
        -10.392402480036463
      ],
      [
        "菲利斯·福格",
        -10.392402480137697
      ],
      [
        "饥",
        -10.395886800593923
      ],
      [
        "吟",
        -10.395886800593928
      ],
      [
        "哩",
        -10.39588680059395
      ],
      [
        "烤",
        -10.399383304090428
      ],
      [
        "陡",
        -10.402892076020171
      ],
      [
        "览",
        -10.402892076020244
      ],
      [
        "劣",
        -10.402892076020247
      ],
      [
        "翁",
        -10.406413202780783
      ],
      [
        "裸",
        -10.40641320278083
      ],
      [
        "砍",
        -10.40641320278084
      ],
      [
        "桨",
        -10.409946771685405
      ],
      [
        "栅",
        -10.4099467716855
      ],
      [
        "婴",
        -10.409946771685533
      ],
      [
        "尝",
        -10.41325536383038
      ],
      [
        "究",
        -10.413394317174358
      ],
      [
        "档",
        -10.413492870976171
      ],
      [
        "悠",
        -10.413492870976285
      ],
      [
        "小心翼翼地",
        -10.413492870978757
      ],
      [
        "研",
        -10.417021553483238
      ],
      [
        "拐",
        -10.417051589837346
      ],
      [
        "旷",
        -10.417051589837367
      ],
      [
        "橇",
        -10.417051589837381
      ],
      [
        "甜",
        -10.417051589837403
      ],
      [
        "骄",
        -10.424207247799492
      ],
      [
        "隧",
        -10.424207247799547
      ],
      [
        "唇",
        -10.427574091807582
      ],
      [
        "府",
        -10.427698551622711
      ],
      [
        "翅",
        -10.427804370101606
      ],
      [
        "筋",
        -10.427804370101693
      ],
      [
        "涡",
        -10.427804370101754
      ],
      [
        "绑",
        -10.43867403044707
      ],
      [
        "敞",
        -10.438674030447098
      ],
      [
        "陶",
        -10.442323665483578
      ],
      [
        "吉丁·史佩莱",
        -10.445986669146595
      ],
      [
        "滨",
        -10.453353176635183
      ],
      [
        "琼",
        -10.457056880338886
      ],
      [
        "彻",
        -10.460483062720405
      ],
      [
        "窟",
        -10.460774352457886
      ],
      [
        "驻",
        -10.46450569574139
      ],
      [
        "搏",
        -10.464505695741448
      ],
      [
        "患",
        -10.46825101409339
      ],
      [
        "铃",
        -10.468251014093498
      ],
      [
        "吴",
        -10.472010412589714
      ],
      [
        "畅",
        -10.472010412589746
      ],
      [
        "燥",
        -10.475783997495395
      ],
      [
        "祷",
        -10.475783997495455
      ],
      [
        "裁",
        -10.479571876283178
      ],
      [
        "腔",
        -10.479571876283288
      ],
      [
        "棍",
        -10.479571876283302
      ],
      [
        "幢",
        -10.479571876283309
      ],
      [
        "哨",
        -10.483374157652108
      ],
      [
        "K",
        -10.483374157652122
      ],
      [
        "剥",
        -10.48719095154513
      ],
      [
        "掘",
        -10.487190951545164
      ],
      [
        "涛",
        -10.487190951545173
      ],
      [
        "霸",
        -10.487190951545198
      ],
      [
        "恭",
        -10.48719095154524
      ],
      [
        "缕",
        -10.491022369169745
      ],
      [
        "丰",
        -10.494731641833699
      ],
      [
        "沈",
        -10.494868523015935
      ],
      [
        "砸",
        -10.494868523015967
      ],
      [
        "溪",
        -10.498729526876911
      ],
      [
        "逮",
        -10.498729526876911
      ],
      [
        "恋",
        -10.498729526876957
      ],
      [
        "灿",
        -10.502605495869092
      ],
      [
        "－",
        -10.502605495869124
      ],
      [
        "汹",
        -10.502605495869128
      ],
      [
        "虏",
        -10.502605495869144
      ],
      [
        "惫",
        -10.502605495869176
      ],
      [
        "懒",
        -10.502605495869204
      ],
      [
        "披",
        -10.506496546452809
      ],
      [
        "寓",
        -10.506496546452855
      ],
      [
        "柏",
        -10.51432433372132
      ],
      [
        "肺",
        -10.514324365080236
      ],
      [
        "贸",
        -10.514324365080247
      ],
      [
        "欠",
        -10.514324365080268
      ],
      [
        "冈",
        -10.51432436508028
      ],
      [
        "糖",
        -10.51432436508032
      ],
      [
        "罕",
        -10.514324365080373
      ],
      [
        "猴",
        -10.518261372954267
      ],
      [
        "坎",
        -10.522213936152998
      ],
      [
        "趋",
        -10.522213942124132
      ],
      [
        "惹",
        -10.5222139421242
      ],
      [
        "盼",
        -10.522213942124237
      ],
      [
        "鹅",
        -10.522213942124258
      ],
      [
        "填",
        -10.526182196092435
      ],
      [
        "愧",
        -10.526182196092465
      ],
      [
        "趟",
        -10.526182196092504
      ],
      [
        "嘿",
        -10.530166259837518
      ],
      [
        "邮",
        -10.534166259837408
      ],
      [
        "宴",
        -10.534166259837452
      ],
      [
        "剂",
        -10.534166259837487
      ],
      [
        "膨",
        -10.53416625983752
      ],
      [
        "踢",
        -10.534166259837534
      ],
      [
        "惠",
        -10.538182324094477
      ],
      [
        "廓",
        -10.538182324094514
      ],
      [
        "添",
        -10.53818232409456
      ],
      [
        "隶",
        -10.53818232409462
      ],
      [
        "闯",
        -10.542214582158959
      ],
      [
        "啪",
        -10.542214582159044
      ],
      [
        "蔑",
        -10.542214582159055
      ],
      [
        "柄",
        -10.546263165154976
      ],
      [
        "绷",
        -10.546263165154997
      ],
      [
        "估",
        -10.550161352177888
      ],
      [
        "厢",
        -10.55032820580536
      ],
      [
        "孚",
        -10.550328205805418
      ],
      [
        "沼",
        -10.55032820580543
      ],
      [
        "毫",
        -10.551206099768226
      ],
      [
        "键",
        -10.553846941720561
      ],
      [
        "喻",
        -10.554409838458511
      ],
      [
        "勘",
        -10.554409838458545
      ],
      [
        "剪",
        -10.558508199114174
      ],
      [
        "沫",
        -10.558508199114218
      ],
      [
        "甩",
        -10.558508199114232
      ],
      [
        "傍",
        -10.558508199114256
      ],
      [
        "腐",
        -10.558508199114272
      ],
      [
        "胃",
        -10.562623425451608
      ],
      [
        "滞",
        -10.562623425451616
      ],
      [
        "瞒",
        -10.562623425451644
      ],
      [
        "妨",
        -10.562623425451662
      ],
      [
        "衬",
        -10.562623425451715
      ],
      [
        "秘",
        -10.565669241153063
      ],
      [
        "罐",
        -10.566755656856579
      ],
      [
        "侍",
        -10.566755656856637
      ],
      [
        "粘",
        -10.570905034449842
      ],
      [
        "掀",
        -10.570905034449941
      ],
      [
        "鹿",
        -10.57090503444995
      ],
      [
        "X",
        -10.57090503444999
      ],
      [
        "缀",
        -10.570905034450025
      ],
      [
        "睹",
        -10.570905034450032
      ],
      [
        "屠",
        -10.575071701116597
      ],
      [
        "瑙",
        -10.57507170111661
      ],
      [
        "刷",
        -10.575071701116627
      ],
      [
        "申",
        -10.575071701116634
      ],
      [
        "“花岗石宫”",
        -10.57507170111666
      ],
      [
        "孟",
        -10.575071701116705
      ],
      [
        "削",
        -10.579255801535007
      ],
      [
        "苗",
        -10.57925580153504
      ],
      [
        "伪",
        -10.57925580153505
      ],
      [
        "币",
        -10.579255801535062
      ],
      [
        "盲",
        -10.579255801535064
      ],
      [
        "矛",
        -10.583457482207272
      ],
      [
        "秃",
        -10.583457482207315
      ],
      [
        "玉",
        -10.583457482207328
      ],
      [
        "训",
        -10.587612267837194
      ],
      [
        "裤",
        -10.587676891489949
      ],
      [
        "谜",
        -10.587676891489997
      ],
      [
        "盾",
        -10.587676891490041
      ],
      [
        "狄",
        -10.591914095768193
      ],
      [
        "冠",
        -10.591914179625585
      ],
      [
        "拱",
        -10.591914179625585
      ],
      [
        "祈",
        -10.591914179625668
      ],
      [
        "恳",
        -10.596169498774547
      ],
      [
        "携",
        -10.59616949877455
      ],
      [
        "沮",
        -10.596169498774575
      ],
      [
        "诉",
        -10.600146549481178
      ],
      [
        "殖",
        -10.600239245033842
      ],
      [
        "臭",
        -10.600443003048083
      ],
      [
        "棋",
        -10.604734848541588
      ],
      [
        "炭",
        -10.604734848541604
      ],
      [
        "慨",
        -10.604734848541618
      ],
      [
        "渗",
        -10.604734848541618
      ],
      [
        "茶",
        -10.60473484854166
      ],
      [
        "慑",
        -10.604734848541678
      ],
      [
        "社",
        -10.606191894073852
      ],
      [
        "惧",
        -10.608986422498633
      ],
      [
        "炎",
        -10.609045193369127
      ],
      [
        "梭",
        -10.609045193369148
      ],
      [
        "祸",
        -10.609045193369166
      ],
      [
        "滤",
        -10.609045193369262
      ],
      [
        "猪",
        -10.613365135365665
      ],
      [
        "鞭",
        -10.61337419769819
      ],
      [
        "斤",
        -10.6133741976982
      ],
      [
        "缆",
        -10.61337419769821
      ],
      [
        "页",
        -10.613374197698265
      ],
      [
        "拨",
        -10.613374197698288
      ],
      [
        "碳",
        -10.617722023784957
      ],
      [
        "瞎",
        -10.61772202378515
      ],
      [
        "O",
        -10.622088836012228
      ],
      [
        "刹",
        -10.622088836012248
      ],
      [
        "蠢",
        -10.626428406825077
      ],
      [
        "冥",
        -10.62647480092447
      ],
      [
        "绩",
        -10.626474800924488
      ],
      [
        "琳",
        -10.626474800924491
      ],
      [
        "朦",
        -10.626474800924502
      ],
      [
        "仗",
        -10.626474800924527
      ],
      [
        "锅",
        -10.626474800924548
      ],
      [
        "纠",
        -10.626474800924552
      ],
      [
        "挽",
        -10.626474800924562
      ],
      [
        "析",
        -10.629621635880492
      ],
      [
        "押",
        -10.630880087268071
      ],
      [
        "跪",
        -10.630880087268132
      ],
      [
        "泣",
        -10.63088008726816
      ],
      [
        "“哈勒布雷纳”号",
        -10.63088008726816
      ],
      [
        "氏",
        -10.630880087268167
      ],
      [
        "耻",
        -10.635304866029134
      ],
      [
        "赋",
        -10.635304866029182
      ],
      [
        "垫",
        -10.635304866029186
      ],
      [
        "刃",
        -10.635304866029234
      ],
      [
        "猫",
        -10.6397493104736
      ],
      [
        "署",
        -10.639749310473615
      ],
      [
        "卢",
        -10.639749310473647
      ],
      [
        "鹰",
        -10.639749310473658
      ],
      [
        "羽",
        -10.639749310473663
      ],
      [
        "嫌",
        -10.639749310473679
      ],
      [
        "槽",
        -10.639749310473714
      ],
      [
        "卵",
        -10.648697901120636
      ],
      [
        "颈",
        -10.648697901120697
      ],
      [
        "帘",
        -10.657727292503028
      ],
      [
        "娅",
        -10.6620296283579
      ],
      [
        "仓",
        -10.662272747048473
      ],
      [
        "呜",
        -10.662272747048506
      ],
      [
        "妻",
        -10.66412901643226
      ],
      [
        "峡",
        -10.665739784887382
      ],
      [
        "砖",
        -10.66683895709405
      ],
      [
        "茅",
        -10.666838957094058
      ],
      [
        "搅",
        -10.666838957094093
      ],
      [
        "凸",
        -10.666838957094173
      ],
      [
        "冯",
        -10.666838957094253
      ],
      [
        "嵌",
        -10.671426113057379
      ],
      [
        "１",
        -10.671426113057382
      ],
      [
        "茂",
        -10.671426113057398
      ],
      [
        "诡",
        -10.671426113057404
      ],
      [
        "谍",
        -10.671426113057416
      ],
      [
        "脾",
        -10.671426113057446
      ],
      [
        "摊",
        -10.676034407988253
      ],
      [
        "陋",
        -10.676034407988315
      ],
      [
        "汀",
        -10.676034407988354
      ],
      [
        "尸",
        -10.679645364932139
      ],
      [
        "y",
        -10.680664037617728
      ],
      [
        "雇",
        -10.68066403761786
      ],
      [
        "诅",
        -10.680664037617955
      ],
      [
        "藉",
        -10.685315200408589
      ],
      [
        "藤",
        -10.685315200408603
      ],
      [
        "②",
        -10.68531520040862
      ],
      [
        "租",
        -10.685315200408638
      ],
      [
        "棚",
        -10.685315200408734
      ],
      [
        "乔阿姆·达哥斯塔",
        -10.689988097604857
      ],
      [
        "悟",
        -10.68998809760486
      ],
      [
        "愁",
        -10.689988097604866
      ],
      [
        "奎",
        -10.689988097604866
      ],
      [
        "趁",
        -10.689988097604873
      ],
      [
        "拙",
        -10.689988097604884
      ],
      [
        "伽",
        -10.689988097604935
      ],
      [
        "蜂",
        -10.694682933285591
      ],
      [
        "阱",
        -10.694682933285613
      ],
      [
        "溢",
        -10.69468293328563
      ],
      [
        "橡",
        -10.694682933285652
      ],
      [
        "鄙",
        -10.694682933285709
      ],
      [
        "唯",
        -10.695261431421443
      ],
      [
        "昨",
        -10.697951405388462
      ],
      [
        "己",
        -10.6984918044272
      ],
      [
        "拢",
        -10.69939991441771
      ],
      [
        "吁",
        -10.699399914417722
      ],
      [
        "岬",
        -10.7041392509106
      ],
      [
        "偿",
        -10.704139250910606
      ],
      [
        "=",
        -10.704139250910611
      ],
      [
        "蹲",
        -10.70890115567245
      ],
      [
        "憎",
        -10.708901155672464
      ],
      [
        "匙",
        -10.708901155672493
      ],
      [
        "婆",
        -10.708901155672496
      ],
      [
        "咙",
        -10.708901155672514
      ],
      [
        "喧",
        -10.708901155672542
      ],
      [
        "浩",
        -10.713685844667646
      ],
      [
        "%",
        -10.713685844667648
      ],
      [
        "乖",
        -10.71368584466778
      ],
      [
        "侯",
        -10.7136858446678
      ],
      [
        "凿",
        -10.718493536975348
      ],
      [
        "铁马斯彻夫伯爵",
        -10.718493536975398
      ],
      [
        "喔",
        -10.718493536975416
      ],
      [
        "驰",
        -10.723324454849749
      ],
      [
        "哇",
        -10.72332445484992
      ],
      [
        "宪",
        -10.728178823781853
      ],
      [
        "旺",
        -10.733056872562376
      ],
      [
        "址",
        -10.733056872562395
      ],
      [
        "斧",
        -10.737958833346603
      ],
      [
        "巾",
        -10.737958833346624
      ],
      [
        "褐",
        -10.737958833346632
      ],
      [
        "铅",
        -10.737958833346648
      ],
      [
        "屑",
        -10.737958833346656
      ],
      [
        "洒",
        -10.742884941721059
      ],
      [
        "履",
        -10.74783543677048
      ],
      [
        "j",
        -10.747835436770492
      ],
      [
        "耍",
        -10.747835436770535
      ],
      [
        "愣",
        -10.747835436770563
      ],
      [
        "甚",
        -10.750422567731565
      ],
      [
        "炼",
        -10.752810561148618
      ],
      [
        "腕",
        -10.752810561148653
      ],
      [
        "拂",
        -10.752810561148694
      ],
      [
        "怎",
        -10.757382388240991
      ],
      [
        "励",
        -10.75781056114862
      ],
      [
        "铳",
        -10.757810561148652
      ],
      [
        "粹",
        -10.757810561148684
      ],
      [
        "拒",
        -10.76260691344493
      ],
      [
        "舟",
        -10.762835686776722
      ],
      [
        "祥",
        -10.762835686776741
      ],
      [
        "嘟",
        -10.76283568677679
      ],
      [
        "咐",
        -10.762835686776828
      ],
      [
        "灼",
        -10.76283568677687
      ],
      [
        "授",
        -10.767460169913836
      ],
      [
        "妄",
        -10.76788619182727
      ],
      [
        "狮",
        -10.772962333959066
      ],
      [
        "购",
        -10.772962333959219
      ],
      [
        "逗",
        -10.772962333959278
      ],
      [
        "咯",
        -10.772962333959278
      ],
      [
        "昼",
        -10.778064374775543
      ],
      [
        "谱",
        -10.78319257990378
      ],
      [
        "汁",
        -10.783192579903803
      ],
      [
        "肠",
        -10.783192579903842
      ],
      [
        "瀑",
        -10.788347219079027
      ],
      [
        "爽",
        -10.788347219079037
      ],
      [
        "咆",
        -10.788347219079075
      ],
      [
        "滋",
        -10.788347219079096
      ],
      [
        "吱",
        -10.788347219079101
      ],
      [
        "踩",
        -10.788347219079107
      ],
      [
        "屁",
        -10.793528566229318
      ],
      [
        "哮",
        -10.793528566229357
      ],
      [
        "垃",
        -10.793528566229433
      ],
      [
        "绞",
        -10.798736899562638
      ],
      [
        "册",
        -10.798736899562652
      ],
      [
        "贪",
        -10.798736899562664
      ],
      [
        "峻",
        -10.798736899562687
      ],
      [
        "沸",
        -10.79873689956269
      ],
      [
        "捡",
        -10.80397250165683
      ],
      [
        "----------------",
        -10.803972501656915
      ],
      [
        "竹",
        -10.803972501656993
      ],
      [
        "辅",
        -10.809235659551618
      ],
      [
        "骸",
        -10.809235659551646
      ],
      [
        "蹈",
        -10.809235659551671
      ],
      [
        "逸",
        -10.814526664842589
      ],
      [
        "辰",
        -10.814526664842658
      ],
      [
        "凄",
        -10.819845813778727
      ],
      [
        "蚀",
        -10.819845813778826
      ],
      [
        "萧",
        -10.825193407361663
      ],
      [
        "订",
        -10.825193407361677
      ],
      [
        "吕",
        -10.825193407361764
      ],
      [
        "b",
        -10.830569751447655
      ],
      [
        "皂",
        -10.830569751447662
      ],
      [
        "龟",
        -10.830569751447676
      ],
      [
        "捏",
        -10.83056975144768
      ],
      [
        "垮",
        -10.83056975144772
      ],
      [
        "桃",
        -10.830569751447753
      ],
      [
        "盈",
        -10.835975156853085
      ],
      [
        "瑚",
        -10.84140993946173
      ],
      [
        "夕",
        -10.841409939461785
      ],
      [
        "贡",
        -10.841409939461812
      ],
      [
        "弓",
        -10.841409939461823
      ],
      [
        "钥",
        -10.846874420336125
      ],
      [
        "皆",
        -10.846874420336128
      ],
      [
        "矩",
        -10.84687442033615
      ],
      [
        "朴",
        -10.84687442033615
      ],
      [
        "匀",
        -10.846874420336155
      ],
      [
        "躬",
        -10.846874420336158
      ],
      [
        "玄",
        -10.852368925830575
      ],
      [
        "陵",
        -10.8523689258306
      ],
      [
        "厘",
        -10.852368925830618
      ],
      [
        "杉",
        -10.852368925830643
      ],
      [
        "惕",
        -10.852368925830643
      ],
      [
        "蓄",
        -10.85236892583065
      ],
      [
        "甸",
        -10.852368925830685
      ],
      [
        "兔",
        -10.857893787709077
      ],
      [
        "昔",
        -10.863449343264667
      ],
      [
        "梁",
        -10.863449343264694
      ],
      [
        "渐",
        -10.868941313408946
      ],
      [
        "寿",
        -10.869035935443435
      ],
      [
        "饼",
        -10.869035935443481
      ],
      [
        "惶",
        -10.874653912971457
      ],
      [
        "嫁",
        -10.874653912971482
      ],
      [
        "】",
        -10.874653912971525
      ],
      [
        "【",
        -10.874653912971532
      ],
      [
        "哗",
        -10.874653912971569
      ],
      [
        "爸",
        -10.88026587938997
      ],
      [
        "娘",
        -10.880285962808566
      ],
      [
        "硅",
        -10.880303630485553
      ],
      [
        "眩",
        -10.880303630485638
      ],
      [
        "坛",
        -10.880303630485646
      ],
      [
        "鉴",
        -10.880303630485663
      ],
      [
        "儒",
        -10.880303630485706
      ],
      [
        "售",
        -10.885985448667359
      ],
      [
        "镶",
        -10.885985448667395
      ],
      [
        "莹",
        -10.885985448667402
      ],
      [
        "霉",
        -10.885985448667407
      ],
      [
        "辜",
        -10.885985448667466
      ],
      [
        "眺",
        -10.885985448667483
      ],
      [
        "瘫",
        -10.891699734381785
      ],
      [
        "歪",
        -10.891699734381826
      ],
      [
        "拘",
        -10.897446860818444
      ],
      [
        "盏",
        -10.897446860818507
      ],
      [
        "届",
        -10.897446860818526
      ],
      [
        "黯",
        -10.903227207639265
      ],
      [
        "笛",
        -10.90322720763931
      ],
      [
        "匪",
        -10.909041161127629
      ],
      [
        "渠",
        -10.909041161127632
      ],
      [
        "卸",
        -10.909041161127645
      ],
      [
        "禽",
        -10.909041161127673
      ],
      [
        "哎",
        -10.909041161127682
      ],
      [
        "嗨",
        -10.909041161127716
      ],
      [
        "衫",
        -10.90904116112784
      ],
      [
        "酬",
        -10.91488911434397
      ],
      [
        "亭",
        -10.914889114343975
      ],
      [
        "沾",
        -10.914889114344032
      ],
      [
        "衔",
        -10.914889114344057
      ],
      [
        "郊",
        -10.914889114344096
      ],
      [
        "秦",
        -10.9148891143441
      ],
      [
        "狐",
        -10.920771467285045
      ],
      [
        "豆",
        -10.920771467285181
      ],
      [
        "噩",
        -10.920771467285302
      ],
      [
        "溅",
        -10.920771467285306
      ],
      [
        "栖",
        -10.920771467285334
      ],
      [
        "锯",
        -10.926688627048556
      ],
      [
        "荧",
        -10.926688627048582
      ],
      [
        "v",
        -10.93264100800081
      ],
      [
        "棉",
        -10.932641008000875
      ],
      [
        "骤",
        -10.9326410080009
      ],
      [
        "柳",
        -10.932641008000937
      ],
      [
        "淌",
        -10.932641008000957
      ],
      [
        "坟",
        -10.932641008000964
      ],
      [
        "绒",
        -10.932641008000967
      ],
      [
        "盯",
        -10.934436970489688
      ],
      [
        "汪",
        -10.938626949996983
      ],
      [
        "f",
        -10.938629031952939
      ],
      [
        "框",
        -10.938629031953063
      ],
      [
        "姑",
        -10.94463428639281
      ],
      [
        "党",
        -10.94465312833854
      ],
      [
        "慕",
        -10.944653128338544
      ],
      [
        "颅",
        -10.944653128338551
      ],
      [
        "稽",
        -10.944653128338603
      ],
      [
        "彼",
        -10.947521058320437
      ],
      [
        "巫",
        -10.95071373439912
      ],
      [
        "彭",
        -10.950713734399137
      ],
      [
        "陨",
        -10.950713734399185
      ],
      [
        "迦",
        -10.950713734399194
      ],
      [
        "酋",
        -10.950713734399198
      ],
      [
        "椭",
        -10.950713734399235
      ],
      [
        "¨",
        -10.950713734399304
      ],
      [
        "泳",
        -10.956811295374724
      ],
      [
        "锤",
        -10.956811295374733
      ],
      [
        "魏",
        -10.956811295374772
      ],
      [
        "瘟",
        -10.956811295374807
      ],
      [
        "嘱",
        -10.956811295374841
      ],
      [
        "狡",
        -10.962946264699724
      ],
      [
        "铸",
        -10.962946264699847
      ],
      [
        "赐",
        -10.969119104206072
      ],
      [
        "雀",
        -10.969119104206083
      ],
      [
        "咧",
        -10.969119104206166
      ],
      [
        "'",
        -10.975330284327786
      ],
      [
        "扁",
        -10.975330284330253
      ],
      [
        "蹦",
        -10.975330284330301
      ],
      [
        "茄",
        -10.97533028433032
      ],
      [
        "蜜",
        -10.975330284330386
      ],
      [
        "倘",
        -10.98158028433032
      ],
      [
        "怯",
        -10.981580284330366
      ],
      [
        "踱",
        -10.98158028433039
      ],
      [
        "仙",
        -10.981580284330462
      ],
      [
        "／",
        -10.987869592506412
      ],
      [
        "擎",
        -10.987869592506417
      ],
      [
        "炽",
        -10.987869592506438
      ],
      [
        "纱",
        -10.987869592506463
      ],
      [
        "窒",
        -10.987869592506517
      ],
      [
        "瑰",
        -10.987869592506529
      ],
      [
        "墟",
        -10.994198706430485
      ],
      [
        "翔",
        -10.99419870643051
      ],
      [
        "硕",
        -10.99419870643055
      ],
      [
        "荫",
        -11.0005681331821
      ],
      [
        "吩",
        -11.000568133182103
      ],
      [
        "糙",
        -11.000568133182115
      ],
      [
        "烛",
        -11.000568133182128
      ],
      [
        "碧",
        -11.000568133182181
      ],
      [
        "庸",
        -11.006978389592222
      ],
      [
        "鸭",
        -11.006978389592259
      ],
      [
        "撼",
        -11.006978389592302
      ],
      [
        "娱",
        -11.006978389592346
      ],
      [
        "夷",
        -11.006978389592394
      ],
      [
        "簇",
        -11.006978389592451
      ],
      [
        "庙",
        -11.013430002495518
      ],
      [
        "讥",
        -11.013430002495621
      ],
      [
        "扳",
        -11.01992350898905
      ],
      [
        "寡",
        -11.01992350898908
      ],
      [
        "囊",
        -11.019923508989127
      ],
      [
        "硫",
        -11.026459456701367
      ],
      [
        "税",
        -11.026459456701414
      ],
      [
        "吾",
        -11.026459456701485
      ],
      [
        "２",
        -11.026459456701513
      ],
      [
        "贺",
        -11.02645945670153
      ],
      [
        "衡",
        -11.032359426888206
      ],
      [
        "藻",
        -11.033038404069753
      ],
      [
        "嚼",
        -11.033038404069902
      ],
      [
        "噪",
        -11.03303840406991
      ],
      [
        "聋",
        -11.033038404069918
      ],
      [
        "佑",
        -11.033038404069952
      ],
      [
        "艳",
        -11.033038404069973
      ],
      [
        "综",
        -11.039660920626186
      ],
      [
        "谬",
        -11.039660920626226
      ],
      [
        "玫",
        -11.039660920626229
      ],
      [
        "悉",
        -11.046242124066485
      ],
      [
        "俱",
        -11.046327432211953
      ],
      [
        "僻",
        -11.046327587292843
      ],
      [
        "泼",
        -11.046327587292875
      ],
      [
        "悯",
        -11.046327587292888
      ],
      [
        "淘",
        -11.046327587292923
      ],
      [
        "贩",
        -11.046327587292929
      ],
      [
        "蜡",
        -11.046327587292932
      ],
      [
        "犬",
        -11.046327587292932
      ],
      [
        "肤",
        -11.052726730315303
      ],
      [
        "裴",
        -11.05303899639781
      ],
      [
        "熬",
        -11.053038996688795
      ],
      [
        "澡",
        -11.053038996688802
      ],
      [
        "塞巴斯蒂安·佐尔诺",
        -11.053038996688821
      ],
      [
        "陀",
        -11.059783854367383
      ],
      [
        "饶",
        -11.05979575344559
      ],
      [
        "恍",
        -11.059795753445632
      ],
      [
        "巷",
        -11.059795753445638
      ],
      [
        "呻",
        -11.059795753445652
      ],
      [
        "茵",
        -11.066598474445449
      ],
      [
        "坍",
        -11.066598474533864
      ],
      [
        "嗅",
        -11.06659847453405
      ],
      [
        "涩",
        -11.066598474534056
      ],
      [
        "椰",
        -11.066598474534093
      ],
      [
        "洼",
        -11.066598474534135
      ],
      [
        "谣",
        -11.073447789602497
      ],
      [
        "蓬",
        -11.073447789602508
      ],
      [
        "搂",
        -11.073447789602518
      ],
      [
        "秩",
        -11.07344778960254
      ],
      [
        "脂",
        -11.073447789602548
      ],
      [
        "烫",
        -11.073447789602577
      ],
      [
        "叮",
        -11.073447789602627
      ],
      [
        "捞",
        -11.080344341326628
      ],
      [
        "奢",
        -11.08034434132668
      ],
      [
        "骇",
        -11.080344341326688
      ],
      [
        "谦",
        -11.080344341326693
      ],
      [
        "侄",
        -11.080344341326693
      ],
      [
        "烬",
        -11.080344341326725
      ],
      [
        "闸",
        -11.080344341326775
      ],
      [
        "殷",
        -11.087288785771127
      ],
      [
        "揉",
        -11.087288785771165
      ],
      [
        "垒",
        -11.087288785771193
      ],
      [
        "宗",
        -11.093855502751815
      ],
      [
        "刊",
        -11.094281792763985
      ],
      [
        "舆",
        -11.094281792764095
      ],
      [
        "谊",
        -11.094281792764118
      ],
      [
        "姨",
        -11.094281792764129
      ],
      [
        "驯",
        -11.094281792764182
      ],
      [
        "浦",
        -11.094281792764214
      ],
      [
        "佬",
        -11.101324046285255
      ],
      [
        "溶",
        -11.101324046285258
      ],
      [
        "晋",
        -11.10132404628526
      ],
      [
        "卜",
        -11.10132404628526
      ],
      [
        "侣",
        -11.101324046285267
      ],
      [
        "嘎",
        -11.101324046285297
      ],
      [
        "稿",
        -11.101324046285358
      ],
      [
        "…",
        -11.108386288147244
      ],
      [
        "耕",
        -11.108416244866696
      ],
      [
        "津",
        -11.108416244866767
      ],
      [
        "梳",
        -11.108416244866792
      ],
      [
        "辽",
        -11.10841624486681
      ],
      [
        "澈",
        -11.108416244866838
      ],
      [
        "栗",
        -11.108416244866971
      ],
      [
        "努",
        -11.114343004825646
      ],
      [
        "渺",
        -11.115559102009609
      ],
      [
        "曙",
        -11.115559102009648
      ],
      [
        "兮",
        -11.115559102009652
      ],
      [
        "捧",
        -11.115559102009698
      ],
      [
        "飓",
        -11.122753346613958
      ],
      [
        "仑",
        -11.122753346613958
      ],
      [
        "昧",
        -11.122753346613974
      ],
      [
        "窥",
        -11.122753346613983
      ],
      [
        "眯",
        -11.122753346613989
      ],
      [
        "肖",
        -11.122753346614006
      ],
      [
        "劈",
        -11.122753346614012
      ],
      [
        "姻",
        -11.122753346614044
      ],
      [
        "邸",
        -11.129999723425561
      ],
      [
        "棘",
        -11.129999723425707
      ],
      [
        "玻",
        -11.137298298961738
      ],
      [
        "宰",
        -11.13729899349853
      ],
      [
        "拇",
        -11.137298993498531
      ],
      [
        "斐",
        -11.137298993498565
      ],
      [
        "蔓",
        -11.137298993498582
      ],
      [
        "呃",
        -11.13729899349861
      ],
      [
        "拓",
        -11.144651934674986
      ],
      [
        "妒",
        -11.144651934675046
      ],
      [
        "煌",
        -11.14465193467507
      ],
      [
        "哄",
        -11.144651934675172
      ],
      [
        "慎",
        -11.1520486120082
      ],
      [
        "逛",
        -11.152059342082357
      ],
      [
        "捆",
        -11.152059342082403
      ],
      [
        "窜",
        -11.152059342082477
      ],
      [
        "％",
        -11.159522028649569
      ],
      [
        "毅",
        -11.159522028649606
      ],
      [
        "孕",
        -11.159522028649615
      ],
      [
        "宠",
        -11.159522028649622
      ],
      [
        "狸",
        -11.167040825641834
      ],
      [
        "裙",
        -11.167040825642003
      ],
      [
        "朽",
        -11.167040825642104
      ],
      [
        "宋",
        -11.167040825642125
      ],
      [
        "筑",
        -11.182086643002606
      ],
      [
        "黛",
        -11.182250171004055
      ],
      [
        "稚",
        -11.182250171004096
      ],
      [
        "擘",
        -11.182250171004103
      ],
      [
        "荆",
        -11.182250171004146
      ],
      [
        "赚",
        -11.182250171004238
      ],
      [
        "徐",
        -11.189942478696373
      ],
      [
        "忡",
        -11.189942478696395
      ],
      [
        "蜴",
        -11.189942478696405
      ],
      [
        "亦",
        -11.189942478696409
      ],
      [
        "帜",
        -11.189942478696427
      ],
      [
        "oads/allimg/2006",
        -11.189942478696437
      ],
      [
        "嘻",
        -11.189942478696482
      ],
      [
        "伹",
        -11.197694416680903
      ],
      [
        "J",
        -11.197694416680937
      ],
      [
        "３",
        -11.205506916680843
      ],
      [
        "匿",
        -11.205506916680847
      ],
      [
        "贼",
        -11.205506916680882
      ],
      [
        "晒",
        -11.205506916680907
      ],
      [
        "捂",
        -11.205506916680914
      ],
      [
        "挫",
        -11.205506916680932
      ],
      [
        "兜",
        -11.205506916680957
      ],
      [
        "凳",
        -11.205506916680983
      ],
      [
        "睛",
        -11.209042885756421
      ],
      [
        "滥",
        -11.213380932428905
      ],
      [
        "缚",
        -11.21338093242893
      ],
      [
        "簸",
        -11.213380932428977
      ],
      [
        "乞",
        -11.213380932428986
      ],
      [
        "嫩",
        -11.213380932429017
      ],
      [
        "溯",
        -11.213380932429072
      ],
      [
        "祭",
        -11.22131744036534
      ],
      [
        "株",
        -11.221317440365407
      ],
      [
        "肘",
        -11.221317440365436
      ],
      [
        "慷",
        -11.221317440365459
      ],
      [
        "H",
        -11.229317440364868
      ],
      [
        "卓",
        -11.229317440365413
      ],
      [
        "媒",
        -11.229317440365442
      ],
      [
        "募",
        -11.229317440365456
      ],
      [
        "魅",
        -11.22931744036547
      ],
      [
        "剔",
        -11.229317440365476
      ],
      [
        "匠",
        -11.229317440365476
      ],
      [
        "曹",
        -11.229317440365477
      ],
      [
        "葱",
        -11.23738195649434
      ],
      [
        "钝",
        -11.237381956494403
      ],
      [
        "嫉",
        -11.23738195649442
      ],
      [
        "砰",
        -11.237381956494467
      ],
      [
        "碗",
        -11.23738195649457
      ],
      [
        "嘉",
        -11.245512033715418
      ],
      [
        "胚",
        -11.245512037794963
      ],
      [
        "苔",
        -11.24551203779523
      ],
      [
        "芝",
        -11.245512037795246
      ],
      [
        "豚",
        -11.245512037795248
      ],
      [
        "嘀",
        -11.245512037795272
      ],
      [
        "筹",
        -11.24551203779528
      ],
      [
        "愕",
        -11.245512037795319
      ],
      [
        "肆",
        -11.245512037795331
      ],
      [
        "坝",
        -11.253708759106662
      ],
      [
        "侮",
        -11.253708759106745
      ],
      [
        "撇",
        -11.26197322191667
      ],
      [
        "喋",
        -11.261973221916694
      ],
      [
        "蝇",
        -11.26197322191683
      ],
      [
        "芦",
        -11.26197322191685
      ],
      [
        "棱",
        -11.270306555249984
      ],
      [
        "枕",
        -11.270306555250041
      ],
      [
        "倚",
        -11.270306555250048
      ],
      [
        "咳",
        -11.270306555250077
      ],
      [
        "靶",
        -11.278709916594547
      ],
      [
        "奸",
        -11.278709916594572
      ],
      [
        "镑",
        -11.278709916594579
      ],
      [
        "珀",
        -11.278709916594604
      ],
      [
        "栽",
        -11.287184492865524
      ],
      [
        "魄",
        -11.287184492865721
      ],
      [
        "鳍",
        -11.287184492865789
      ],
      [
        "娶",
        -11.28718449286579
      ],
      [
        "歹",
        -11.287184492865798
      ],
      [
        "薇",
        -11.287184492865844
      ],
      [
        "谐",
        -11.287184492865848
      ],
      [
        "婪",
        -11.295731501412813
      ],
      [
        "擅",
        -11.295731501412826
      ],
      [
        "旦",
        -11.29931595280852
      ],
      [
        "栋",
        -11.304352191067881
      ],
      [
        "嘘",
        -11.304352191067895
      ],
      [
        "绰",
        -11.304352191067906
      ],
      [
        "燕",
        -11.304352191067924
      ],
      [
        "杖",
        -11.304352191067926
      ],
      [
        "逢",
        -11.304352191067943
      ],
      [
        "肿",
        -11.304352191067975
      ],
      [
        "鲨",
        -11.304352191068046
      ],
      [
        "～",
        -11.313047843241815
      ],
      [
        "秤",
        -11.313047843241845
      ],
      [
        "k",
        -11.321819773066292
      ],
      [
        "耿",
        -11.321819773066322
      ],
      [
        "疆",
        -11.32181977306633
      ],
      [
        "沌",
        -11.321819773066403
      ],
      [
        "徽",
        -11.321819773066405
      ],
      [
        "虔",
        -11.321819773066444
      ],
      [
        "邱",
        -11.321819773066444
      ],
      [
        "胳",
        -11.330669270627755
      ],
      [
        "虐",
        -11.330669330588464
      ],
      [
        "兼",
        -11.330669330588467
      ],
      [
        "蜒",
        -11.330669330588506
      ],
      [
        "翘",
        -11.33066933058857
      ],
      [
        "拽",
        -11.330669330588599
      ],
      [
        "芮",
        -11.339161500774768
      ],
      [
        "川",
        -11.33958216115932
      ],
      [
        "鸽",
        -11.339597902017061
      ],
      [
        "霜",
        -11.339597902017076
      ],
      [
        "暮",
        -11.339597902017086
      ],
      [
        "叨",
        -11.3395979020171
      ],
      [
        "搓",
        -11.33959790201714
      ],
      [
        "沐",
        -11.339597902017164
      ],
      [
        "辟",
        -11.348606911025998
      ],
      [
        "舔",
        -11.34860691102606
      ],
      [
        "鳄",
        -11.34860691102611
      ],
      [
        "靴",
        -11.348606911026124
      ],
      [
        "咚",
        -11.348606911026259
      ],
      [
        "窍",
        -11.357697820116993
[...]
